unsigned char digit_recognition_tflite[] = {
  0x1c, 0x00, 0x00, 0x00, 0x54, 0x46, 0x4c, 0x33, 0x14, 0x00, 0x20, 0x00,
  0x1c, 0x00, 0x18, 0x00, 0x14, 0x00, 0x10, 0x00, 0x0c, 0x00, 0x00, 0x00,
  0x08, 0x00, 0x04, 0x00, 0x14, 0x00, 0x00, 0x00, 0x1c, 0x00, 0x00, 0x00,
  0x90, 0x00, 0x00, 0x00, 0xe8, 0x00, 0x00, 0x00, 0xfc, 0xd3, 0x02, 0x00,
  0x0c, 0xd4, 0x02, 0x00, 0xc4, 0x5b, 0x03, 0x00, 0x03, 0x00, 0x00, 0x00,
  0x01, 0x00, 0x00, 0x00, 0x04, 0x00, 0x00, 0x00, 0xa6, 0x1b, 0xfd, 0xff,
  0x0c, 0x00, 0x00, 0x00, 0x1c, 0x00, 0x00, 0x00, 0x44, 0x00, 0x00, 0x00,
  0x0f, 0x00, 0x00, 0x00, 0x73, 0x65, 0x72, 0x76, 0x69, 0x6e, 0x67, 0x5f,
  0x64, 0x65, 0x66, 0x61, 0x75, 0x6c, 0x74, 0x00, 0x01, 0x00, 0x00, 0x00,
  0x04, 0x00, 0x00, 0x00, 0x8c, 0xff, 0xff, 0xff, 0x79, 0x00, 0x00, 0x00,
  0x04, 0x00, 0x00, 0x00, 0x11, 0x00, 0x00, 0x00, 0x71, 0x75, 0x61, 0x6e,
  0x74, 0x5f, 0x70, 0x72, 0x65, 0x64, 0x69, 0x63, 0x74, 0x69, 0x6f, 0x6e,
  0x73, 0x00, 0x00, 0x00, 0x01, 0x00, 0x00, 0x00, 0x04, 0x00, 0x00, 0x00,
  0x82, 0x22, 0xfd, 0xff, 0x04, 0x00, 0x00, 0x00, 0x0b, 0x00, 0x00, 0x00,
  0x69, 0x6e, 0x70, 0x75, 0x74, 0x5f, 0x69, 0x6d, 0x61, 0x67, 0x65, 0x00,
  0x02, 0x00, 0x00, 0x00, 0x34, 0x00, 0x00, 0x00, 0x04, 0x00, 0x00, 0x00,
  0xdc, 0xff, 0xff, 0xff, 0x7c, 0x00, 0x00, 0x00, 0x04, 0x00, 0x00, 0x00,
  0x13, 0x00, 0x00, 0x00, 0x43, 0x4f, 0x4e, 0x56, 0x45, 0x52, 0x53, 0x49,
  0x4f, 0x4e, 0x5f, 0x4d, 0x45, 0x54, 0x41, 0x44, 0x41, 0x54, 0x41, 0x00,
  0x08, 0x00, 0x0c, 0x00, 0x08, 0x00, 0x04, 0x00, 0x08, 0x00, 0x00, 0x00,
  0x7b, 0x00, 0x00, 0x00, 0x04, 0x00, 0x00, 0x00, 0x13, 0x00, 0x00, 0x00,
  0x6d, 0x69, 0x6e, 0x5f, 0x72, 0x75, 0x6e, 0x74, 0x69, 0x6d, 0x65, 0x5f,
  0x76, 0x65, 0x72, 0x73, 0x69, 0x6f, 0x6e, 0x00, 0x7d, 0x00, 0x00, 0x00,
  0x10, 0xd3, 0x02, 0x00, 0x08, 0xd3, 0x02, 0x00, 0xb8, 0xd2, 0x02, 0x00,
  0x48, 0xd2, 0x02, 0x00, 0x18, 0xd2, 0x02, 0x00, 0x88, 0xd1, 0x02, 0x00,
  0xb8, 0xd0, 0x02, 0x00, 0x78, 0xd0, 0x02, 0x00, 0x28, 0xce, 0x02, 0x00,
  0x18, 0xca, 0x02, 0x00, 0x08, 0xc6, 0x02, 0x00, 0xb8, 0xc3, 0x02, 0x00,
  0xa8, 0xbd, 0x02, 0x00, 0x98, 0xbb, 0x02, 0x00, 0x68, 0xb8, 0x02, 0x00,
  0x58, 0xb6, 0x02, 0x00, 0x48, 0xb2, 0x02, 0x00, 0x38, 0x8e, 0x02, 0x00,
  0x28, 0x73, 0x02, 0x00, 0xb8, 0x6f, 0x02, 0x00, 0xa8, 0x5d, 0x02, 0x00,
  0x18, 0x50, 0x02, 0x00, 0x58, 0x4b, 0x02, 0x00, 0xc8, 0x46, 0x02, 0x00,
  0xb8, 0x2b, 0x02, 0x00, 0xa8, 0x2b, 0x00, 0x00, 0x98, 0x03, 0x00, 0x00,
  0x80, 0x03, 0x00, 0x00, 0x78, 0x03, 0x00, 0x00, 0x70, 0x03, 0x00, 0x00,
  0x68, 0x03, 0x00, 0x00, 0x60, 0x03, 0x00, 0x00, 0x58, 0x03, 0x00, 0x00,
  0x50, 0x03, 0x00, 0x00, 0x48, 0x03, 0x00, 0x00, 0x40, 0x03, 0x00, 0x00,
  0x38, 0x03, 0x00, 0x00, 0x30, 0x03, 0x00, 0x00, 0x28, 0x03, 0x00, 0x00,
  0x20, 0x03, 0x00, 0x00, 0x18, 0x03, 0x00, 0x00, 0x10, 0x03, 0x00, 0x00,
  0x08, 0x03, 0x00, 0x00, 0x00, 0x03, 0x00, 0x00, 0xf8, 0x02, 0x00, 0x00,
  0xf0, 0x02, 0x00, 0x00, 0xe8, 0x02, 0x00, 0x00, 0xe0, 0x02, 0x00, 0x00,
  0xd8, 0x02, 0x00, 0x00, 0xd0, 0x02, 0x00, 0x00, 0xc8, 0x02, 0x00, 0x00,
  0xc0, 0x02, 0x00, 0x00, 0xb8, 0x02, 0x00, 0x00, 0xb0, 0x02, 0x00, 0x00,
  0xa8, 0x02, 0x00, 0x00, 0xa0, 0x02, 0x00, 0x00, 0x98, 0x02, 0x00, 0x00,
  0x90, 0x02, 0x00, 0x00, 0x88, 0x02, 0x00, 0x00, 0x80, 0x02, 0x00, 0x00,
  0x78, 0x02, 0x00, 0x00, 0x70, 0x02, 0x00, 0x00, 0x68, 0x02, 0x00, 0x00,
  0x60, 0x02, 0x00, 0x00, 0x58, 0x02, 0x00, 0x00, 0x50, 0x02, 0x00, 0x00,
  0x48, 0x02, 0x00, 0x00, 0x40, 0x02, 0x00, 0x00, 0x38, 0x02, 0x00, 0x00,
  0x30, 0x02, 0x00, 0x00, 0x28, 0x02, 0x00, 0x00, 0x20, 0x02, 0x00, 0x00,
  0x18, 0x02, 0x00, 0x00, 0x10, 0x02, 0x00, 0x00, 0x08, 0x02, 0x00, 0x00,
  0x00, 0x02, 0x00, 0x00, 0xf8, 0x01, 0x00, 0x00, 0xf0, 0x01, 0x00, 0x00,
  0xe8, 0x01, 0x00, 0x00, 0xe0, 0x01, 0x00, 0x00, 0xd8, 0x01, 0x00, 0x00,
  0xd0, 0x01, 0x00, 0x00, 0xc8, 0x01, 0x00, 0x00, 0xc0, 0x01, 0x00, 0x00,
  0xb8, 0x01, 0x00, 0x00, 0xb0, 0x01, 0x00, 0x00, 0xa8, 0x01, 0x00, 0x00,
  0xa0, 0x01, 0x00, 0x00, 0x98, 0x01, 0x00, 0x00, 0x90, 0x01, 0x00, 0x00,
  0x88, 0x01, 0x00, 0x00, 0x80, 0x01, 0x00, 0x00, 0x78, 0x01, 0x00, 0x00,
  0x70, 0x01, 0x00, 0x00, 0x68, 0x01, 0x00, 0x00, 0x60, 0x01, 0x00, 0x00,
  0x58, 0x01, 0x00, 0x00, 0x50, 0x01, 0x00, 0x00, 0x48, 0x01, 0x00, 0x00,
  0x40, 0x01, 0x00, 0x00, 0x38, 0x01, 0x00, 0x00, 0x30, 0x01, 0x00, 0x00,
  0x28, 0x01, 0x00, 0x00, 0x20, 0x01, 0x00, 0x00, 0x18, 0x01, 0x00, 0x00,
  0x10, 0x01, 0x00, 0x00, 0x08, 0x01, 0x00, 0x00, 0x00, 0x01, 0x00, 0x00,
  0xf8, 0x00, 0x00, 0x00, 0xf0, 0x00, 0x00, 0x00, 0xe8, 0x00, 0x00, 0x00,
  0xe0, 0x00, 0x00, 0x00, 0xd8, 0x00, 0x00, 0x00, 0xd0, 0x00, 0x00, 0x00,
  0xc8, 0x00, 0x00, 0x00, 0xc0, 0x00, 0x00, 0x00, 0xb8, 0x00, 0x00, 0x00,
  0xb0, 0x00, 0x00, 0x00, 0xa8, 0x00, 0x00, 0x00, 0xa0, 0x00, 0x00, 0x00,
  0x98, 0x00, 0x00, 0x00, 0x90, 0x00, 0x00, 0x00, 0x88, 0x00, 0x00, 0x00,
  0x68, 0x00, 0x00, 0x00, 0x04, 0x00, 0x00, 0x00, 0xee, 0x24, 0xfd, 0xff,
  0x04, 0x00, 0x00, 0x00, 0x54, 0x00, 0x00, 0x00, 0x0c, 0x00, 0x00, 0x00,
  0x08, 0x00, 0x0e, 0x00, 0x08, 0x00, 0x04, 0x00, 0x08, 0x00, 0x00, 0x00,
  0x10, 0x00, 0x00, 0x00, 0x24, 0x00, 0x00, 0x00, 0x00, 0x00, 0x06, 0x00,
  0x08, 0x00, 0x04, 0x00, 0x06, 0x00, 0x00, 0x00, 0x04, 0x00, 0x00, 0x00,
  0x00, 0x00, 0x00, 0x00, 0x00, 0x00, 0x0a, 0x00, 0x10, 0x00, 0x0c, 0x00,
  0x08, 0x00, 0x04, 0x00, 0x0a, 0x00, 0x00, 0x00, 0x01, 0x00, 0x00, 0x00,
  0x02, 0x00, 0x00, 0x00, 0x04, 0x00, 0x00, 0x00, 0x06, 0x00, 0x00, 0x00,
  0x32, 0x2e, 0x31, 0x33, 0x2e, 0x30, 0x00, 0x00, 0x4e, 0x25, 0xfd, 0xff,
  0x04, 0x00, 0x00, 0x00, 0x10, 0x00, 0x00, 0x00, 0x32, 0x2e, 0x37, 0x2e,
  0x30, 0x00, 0x00, 0x00, 0x00, 0x00, 0x00, 0x00, 0x00, 0x00, 0x00, 0x00,
  0xcc, 0xa7, 0xfc, 0xff, 0xd0, 0xa7, 0xfc, 0xff, 0xd4, 0xa7, 0xfc, 0xff,
  0xd8, 0xa7, 0xfc, 0xff, 0xdc, 0xa7, 0xfc, 0xff, 0xe0, 0xa7, 0xfc, 0xff,
  0xe4, 0xa7, 0xfc, 0xff, 0xe8, 0xa7, 0xfc, 0xff, 0xec, 0xa7, 0xfc, 0xff,
  0xf0, 0xa7, 0xfc, 0xff, 0xf4, 0xa7, 0xfc, 0xff, 0xf8, 0xa7, 0xfc, 0xff,
  0xfc, 0xa7, 0xfc, 0xff, 0x00, 0xa8, 0xfc, 0xff, 0x04, 0xa8, 0xfc, 0xff,
  0x08, 0xa8, 0xfc, 0xff, 0x0c, 0xa8, 0xfc, 0xff, 0x10, 0xa8, 0xfc, 0xff,
  0x14, 0xa8, 0xfc, 0xff, 0x18, 0xa8, 0xfc, 0xff, 0x1c, 0xa8, 0xfc, 0xff,
  0x20, 0xa8, 0xfc, 0xff, 0x24, 0xa8, 0xfc, 0xff, 0x28, 0xa8, 0xfc, 0xff,
  0x2c, 0xa8, 0xfc, 0xff, 0x30, 0xa8, 0xfc, 0xff, 0x34, 0xa8, 0xfc, 0xff,
  0x38, 0xa8, 0xfc, 0xff, 0x3c, 0xa8, 0xfc, 0xff, 0x40, 0xa8, 0xfc, 0xff,
  0x44, 0xa8, 0xfc, 0xff, 0x48, 0xa8, 0xfc, 0xff, 0x4c, 0xa8, 0xfc, 0xff,
  0x50, 0xa8, 0xfc, 0xff, 0x54, 0xa8, 0xfc, 0xff, 0x58, 0xa8, 0xfc, 0xff,
  0x5c, 0xa8, 0xfc, 0xff, 0x60, 0xa8, 0xfc, 0xff, 0x64, 0xa8, 0xfc, 0xff,
  0x68, 0xa8, 0xfc, 0xff, 0x6c, 0xa8, 0xfc, 0xff, 0x70, 0xa8, 0xfc, 0xff,
  0x74, 0xa8, 0xfc, 0xff, 0x78, 0xa8, 0xfc, 0xff, 0x7c, 0xa8, 0xfc, 0xff,
  0x80, 0xa8, 0xfc, 0xff, 0x84, 0xa8, 0xfc, 0xff, 0x88, 0xa8, 0xfc, 0xff,
  0x8c, 0xa8, 0xfc, 0xff, 0x90, 0xa8, 0xfc, 0xff, 0x94, 0xa8, 0xfc, 0xff,
  0x98, 0xa8, 0xfc, 0xff, 0x9c, 0xa8, 0xfc, 0xff, 0xa0, 0xa8, 0xfc, 0xff,
  0xa4, 0xa8, 0xfc, 0xff, 0xa8, 0xa8, 0xfc, 0xff, 0xac, 0xa8, 0xfc, 0xff,
  0xb0, 0xa8, 0xfc, 0xff, 0xb4, 0xa8, 0xfc, 0xff, 0xb8, 0xa8, 0xfc, 0xff,
  0xbc, 0xa8, 0xfc, 0xff, 0xc0, 0xa8, 0xfc, 0xff, 0xc4, 0xa8, 0xfc, 0xff,
  0xc8, 0xa8, 0xfc, 0xff, 0xcc, 0xa8, 0xfc, 0xff, 0xd0, 0xa8, 0xfc, 0xff,
  0xd4, 0xa8, 0xfc, 0xff, 0xd8, 0xa8, 0xfc, 0xff, 0xdc, 0xa8, 0xfc, 0xff,
  0xe0, 0xa8, 0xfc, 0xff, 0xe4, 0xa8, 0xfc, 0xff, 0xe8, 0xa8, 0xfc, 0xff,
  0xec, 0xa8, 0xfc, 0xff, 0xf0, 0xa8, 0xfc, 0xff, 0xf4, 0xa8, 0xfc, 0xff,
  0xf8, 0xa8, 0xfc, 0xff, 0xfc, 0xa8, 0xfc, 0xff, 0x00, 0xa9, 0xfc, 0xff,
  0x04, 0xa9, 0xfc, 0xff, 0x08, 0xa9, 0xfc, 0xff, 0x0c, 0xa9, 0xfc, 0xff,
  0x10, 0xa9, 0xfc, 0xff, 0x14, 0xa9, 0xfc, 0xff, 0x18, 0xa9, 0xfc, 0xff,
  0x1c, 0xa9, 0xfc, 0xff, 0x20, 0xa9, 0xfc, 0xff, 0x24, 0xa9, 0xfc, 0xff,
  0x28, 0xa9, 0xfc, 0xff, 0x2c, 0xa9, 0xfc, 0xff, 0x30, 0xa9, 0xfc, 0xff,
  0x34, 0xa9, 0xfc, 0xff, 0x38, 0xa9, 0xfc, 0xff, 0x3c, 0xa9, 0xfc, 0xff,
  0x40, 0xa9, 0xfc, 0xff, 0x44, 0xa9, 0xfc, 0xff, 0xe6, 0x26, 0xfd, 0xff,
  0x04, 0x00, 0x00, 0x00, 0x08, 0x00, 0x00, 0x00, 0x01, 0x00, 0x00, 0x00,
  0x02, 0x00, 0x00, 0x00, 0xfa, 0x26, 0xfd, 0xff, 0x04, 0x00, 0x00, 0x00,
  0x00, 0x28, 0x00, 0x00, 0x06, 0x83, 0x41, 0xbd, 0x06, 0x83, 0x41, 0x3d,
  0x06, 0x83, 0x41, 0x3d, 0x06, 0x83, 0x41, 0xbd, 0x44, 0x22, 0x11, 0xbe,
  0x00, 0x00, 0x00, 0x00, 0x06, 0x83, 0x41, 0xbd, 0x06, 0x83, 0xc1, 0xbd,
  0x00, 0x00, 0x00, 0x00, 0x06, 0x83, 0x41, 0xbd, 0x06, 0x83, 0x41, 0x3d,
  0x06, 0x83, 0xc1, 0xbd, 0x06, 0x83, 0x41, 0x3d, 0x06, 0x83, 0x41, 0xbd,
  0x06, 0x83, 0x41, 0xbd, 0x06, 0x83, 0x41, 0xbd, 0x06, 0x83, 0x41, 0x3d,
  0x06, 0x83, 0xc1, 0x3d, 0x06, 0x83, 0xc1, 0xbd, 0x06, 0x83, 0x41, 0xbd,
  0x06, 0x83, 0xc1, 0xbd, 0x44, 0x22, 0x11, 0x3e, 0x44, 0x22, 0x11, 0x3e,
  0x06, 0x83, 0x41, 0xbd, 0x44, 0x22, 0x11, 0x3e, 0x44, 0x22, 0x11, 0x3e,
  0x44, 0x22, 0x11, 0xbe, 0x44, 0x22, 0x11, 0xbe, 0x06, 0x83, 0x41, 0xbd,
  0x06, 0x83, 0x41, 0x3d, 0x00, 0x00, 0x00, 0x00, 0x06, 0x83, 0x41, 0x3d,
  0x06, 0x83, 0x41, 0xbd, 0x06, 0x83, 0x41, 0xbd, 0x06, 0x83, 0x41, 0xbd,
  0x06, 0x83, 0xc1, 0x3d, 0x06, 0x83, 0xc1, 0x3d, 0x06, 0x83, 0x41, 0x3d,
  0x06, 0x83, 0xc1, 0x3d, 0x06, 0x83, 0x41, 0xbd, 0x00, 0x00, 0x00, 0x00,
  0x00, 0x00, 0x00, 0x00, 0x06, 0x83, 0xc1, 0x3d, 0x06, 0x83, 0x41, 0xbd,
  0x06, 0x83, 0x41, 0xbd, 0x44, 0x22, 0x11, 0x3e, 0x06, 0x83, 0xc1, 0x3d,
  0x06, 0x83, 0xc1, 0xbd, 0x06, 0x83, 0xc1, 0x3d, 0x06, 0x83, 0x41, 0xbd,
  0x06, 0x83, 0xc1, 0x3d, 0x44, 0x22, 0x11, 0x3e, 0x00, 0x00, 0x00, 0x00,
  0x06, 0x83, 0x41, 0xbd, 0x00, 0x00, 0x00, 0x00, 0x06, 0x83, 0xc1, 0x3d,
  0x06, 0x83, 0x41, 0x3d, 0x44, 0x22, 0x11, 0x3e, 0x44, 0x22, 0x11, 0x3e,
  0x06, 0x83, 0x41, 0x3d, 0x06, 0x83, 0xc1, 0xbd, 0x44, 0x22, 0x11, 0xbe,
  0x06, 0x83, 0x41, 0xbd, 0x06, 0x83, 0xc1, 0x3d, 0x06, 0x83, 0x41, 0xbd,
  0x44, 0x22, 0x11, 0xbe, 0x44, 0x22, 0x11, 0x3e, 0x00, 0x00, 0x00, 0x00,
  0x44, 0x22, 0x11, 0x3e, 0x06, 0x83, 0x41, 0x3d, 0x00, 0x00, 0x00, 0x00,
  0x06, 0x83, 0x41, 0x3d, 0x44, 0x22, 0x11, 0xbe, 0x06, 0x83, 0xc1, 0xbd,
  0x44, 0x22, 0x11, 0x3e, 0x06, 0x83, 0xc1, 0xbd, 0x44, 0x22, 0x11, 0xbe,
  0x06, 0x83, 0x41, 0x3d, 0x00, 0x00, 0x00, 0x00, 0x06, 0x83, 0x41, 0x3d,
  0x06, 0x83, 0xc1, 0x3d, 0x06, 0x83, 0xc1, 0x3d, 0x06, 0x83, 0xc1, 0xbd,
  0x00, 0x00, 0x00, 0x00, 0x44, 0x22, 0x11, 0x3e, 0x06, 0x83, 0x41, 0xbd,
  0x06, 0x83, 0x41, 0xbd, 0x06, 0x83, 0x41, 0x3d, 0x06, 0x83, 0x41, 0x3d,
  0x44, 0x22, 0x11, 0xbe, 0x06, 0x83, 0x41, 0xbd, 0x44, 0x22, 0x11, 0x3e,
  0x06, 0x83, 0x41, 0x3d, 0x44, 0x22, 0x11, 0xbe, 0x44, 0x22, 0x11, 0xbe,
  0x06, 0x83, 0x41, 0x3d, 0x06, 0x83, 0xc1, 0xbd, 0x06, 0x83, 0xc1, 0x3d,
  0x06, 0x83, 0x41, 0x3d, 0x00, 0x00, 0x00, 0x00, 0x44, 0x22, 0x11, 0x3e,
  0x44, 0x22, 0x11, 0x3e, 0x06, 0x83, 0x41, 0x3d, 0x06, 0x83, 0x41, 0x3d,
  0x00, 0x00, 0x00, 0x00, 0x06, 0x83, 0xc1, 0xbd, 0x06, 0x83, 0x41, 0x3d,
  0x06, 0x83, 0xc1, 0xbd, 0x06, 0x83, 0x41, 0x3d, 0x00, 0x00, 0x00, 0x00,
  0x06, 0x83, 0xc1, 0x3d, 0x44, 0x22, 0x11, 0x3e, 0x44, 0x22, 0x11, 0xbe,
  0x06, 0x83, 0x41, 0xbd, 0x44, 0x22, 0x11, 0xbe, 0x06, 0x83, 0x41, 0x3d,
  0x06, 0x83, 0xc1, 0xbd, 0x06, 0x83, 0x41, 0x3d, 0x06, 0x83, 0xc1, 0x3d,
  0x44, 0x22, 0x11, 0xbe, 0x44, 0x22, 0x11, 0xbe, 0x00, 0x00, 0x00, 0x00,
  0x06, 0x83, 0x41, 0x3d, 0x06, 0x83, 0xc1, 0x3d, 0x06, 0x83, 0x41, 0x3d,
  0x06, 0x83, 0x41, 0x3d, 0x06, 0x83, 0x41, 0xbd, 0x06, 0x83, 0x41, 0x3d,
  0x06, 0x83, 0xc1, 0x3d, 0x06, 0x83, 0x41, 0x3d, 0x06, 0x83, 0x41, 0xbd,
  0x06, 0x83, 0x41, 0x3d, 0x06, 0x83, 0xc1, 0x3d, 0x06, 0x83, 0xc1, 0x3d,
  0x06, 0x83, 0xc1, 0x3d, 0x06, 0x83, 0x41, 0xbd, 0x00, 0x00, 0x00, 0x00,
  0x06, 0x83, 0xc1, 0xbd, 0x06, 0x83, 0x41, 0xbd, 0x44, 0x22, 0x11, 0xbe,
  0x06, 0x83, 0xc1, 0x3d, 0x06, 0x83, 0xc1, 0xbd, 0x06, 0x83, 0xc1, 0x3d,
  0x06, 0x83, 0x41, 0xbd, 0x44, 0x22, 0x11, 0xbe, 0x06, 0x83, 0xc1, 0x3d,
  0x44, 0x22, 0x11, 0xbe, 0x44, 0x22, 0x11, 0x3e, 0x00, 0x00, 0x00, 0x00,
  0x06, 0x83, 0xc1, 0x3d, 0x06, 0x83, 0xc1, 0xbd, 0x06, 0x83, 0x41, 0x3d,
  0x06, 0x83, 0xc1, 0xbd, 0x06, 0x83, 0xc1, 0xbd, 0x06, 0x83, 0x41, 0xbd,
  0x44, 0x22, 0x11, 0x3e, 0x44, 0x22, 0x11, 0x3e, 0x44, 0x22, 0x11, 0xbe,
  0x06, 0x83, 0xc1, 0x3d, 0x06, 0x83, 0x41, 0xbd, 0x00, 0x00, 0x00, 0x00,
  0x06, 0x83, 0x41, 0x3d, 0x06, 0x83, 0xc1, 0x3d, 0x44, 0x22, 0x11, 0xbe,
  0x06, 0x83, 0xc1, 0xbd, 0x06, 0x83, 0x41, 0xbd, 0x06, 0x83, 0xc1, 0x3d,
  0x44, 0x22, 0x11, 0x3e, 0x06, 0x83, 0xc1, 0xbd, 0x06, 0x83, 0x41, 0x3d,
  0x06, 0x83, 0x41, 0x3d, 0x06, 0x83, 0xc1, 0xbd, 0x06, 0x83, 0xc1, 0x3d,
  0x06, 0x83, 0xc1, 0x3d, 0x00, 0x00, 0x00, 0x00, 0x06, 0x83, 0x41, 0x3d,
  0x06, 0x83, 0x41, 0xbd, 0x06, 0x83, 0xc1, 0xbd, 0x06, 0x83, 0x41, 0x3d,
  0x06, 0x83, 0xc1, 0x3d, 0x06, 0x83, 0x41, 0xbd, 0x00, 0x00, 0x00, 0x00,
  0x06, 0x83, 0xc1, 0xbd, 0x44, 0x22, 0x11, 0xbe, 0x06, 0x83, 0x41, 0x3d,
  0x44, 0x22, 0x11, 0x3e, 0x06, 0x83, 0xc1, 0x3d, 0x06, 0x83, 0xc1, 0x3d,
  0x00, 0x00, 0x00, 0x00, 0x06, 0x83, 0xc1, 0xbd, 0x06, 0x83, 0xc1, 0x3d,
  0x00, 0x00, 0x00, 0x00, 0x06, 0x83, 0xc1, 0x3d, 0x06, 0x83, 0xc1, 0x3d,
  0x06, 0x83, 0xc1, 0x3d, 0x06, 0x83, 0xc1, 0x3d, 0x44, 0x22, 0x11, 0x3e,
  0x44, 0x22, 0x11, 0xbe, 0x06, 0x83, 0xc1, 0xbd, 0x06, 0x83, 0x41, 0x3d,
  0x00, 0x00, 0x00, 0x00, 0x06, 0x83, 0x41, 0x3d, 0x44, 0x22, 0x11, 0x3e,
  0x44, 0x22, 0x11, 0x3e, 0x06, 0x83, 0xc1, 0xbd, 0x06, 0x83, 0xc1, 0xbd,
  0x00, 0x00, 0x00, 0x00, 0x06, 0x83, 0xc1, 0xbd, 0x06, 0x83, 0xc1, 0xbd,
  0x06, 0x83, 0xc1, 0x3d, 0x06, 0x83, 0x41, 0x3d, 0x06, 0x83, 0xc1, 0x3d,
  0x06, 0x83, 0x41, 0xbd, 0x44, 0x22, 0x11, 0x3e, 0x06, 0x83, 0x41, 0xbd,
  0x44, 0x22, 0x11, 0xbe, 0x06, 0x83, 0xc1, 0xbd, 0x06, 0x83, 0x41, 0xbd,
  0x06, 0x83, 0x41, 0x3d, 0x44, 0x22, 0x11, 0xbe, 0x06, 0x83, 0x41, 0xbd,
  0x06, 0x83, 0xc1, 0xbd, 0x06, 0x83, 0x41, 0xbd, 0x06, 0x83, 0xc1, 0xbd,
  0x06, 0x83, 0xc1, 0xbd, 0x00, 0x00, 0x00, 0x00, 0x06, 0x83, 0x41, 0x3d,
  0x06, 0x83, 0xc1, 0xbd, 0x00, 0x00, 0x00, 0x00, 0x06, 0x83, 0x41, 0x3d,
  0x44, 0x22, 0x11, 0xbe, 0x44, 0x22, 0x11, 0x3e, 0x06, 0x83, 0xc1, 0xbd,
  0x44, 0x22, 0x11, 0x3e, 0x06, 0x83, 0x41, 0x3d, 0x44, 0x22, 0x11, 0x3e,
  0x06, 0x83, 0x41, 0xbd, 0x06, 0x83, 0xc1, 0x3d, 0x06, 0x83, 0x41, 0xbd,
  0x00, 0x00, 0x00, 0x00, 0x00, 0x00, 0x00, 0x00, 0x44, 0x22, 0x11, 0xbe,
  0x06, 0x83, 0x41, 0xbd, 0x06, 0x83, 0x41, 0xbd, 0x44, 0x22, 0x11, 0xbe,
  0x44, 0x22, 0x11, 0x3e, 0x06, 0x83, 0x41, 0x3d, 0x06, 0x83, 0x41, 0xbd,
  0x06, 0x83, 0xc1, 0x3d, 0x06, 0x83, 0x41, 0xbd, 0x06, 0x83, 0x41, 0xbd,
  0x00, 0x00, 0x00, 0x00, 0x06, 0x83, 0x41, 0xbd, 0x06, 0x83, 0xc1, 0x3d,
  0x00, 0x00, 0x00, 0x00, 0x06, 0x83, 0xc1, 0x3d, 0x44, 0x22, 0x11, 0xbe,
  0x06, 0x83, 0x41, 0x3d, 0x00, 0x00, 0x00, 0x00, 0x06, 0x83, 0xc1, 0x3d,
  0x06, 0x83, 0x41, 0x3d, 0x06, 0x83, 0x41, 0x3d, 0x06, 0x83, 0xc1, 0x3d,
  0x00, 0x00, 0x00, 0x00, 0x06, 0x83, 0x41, 0x3d, 0x00, 0x00, 0x00, 0x00,
  0x00, 0x00, 0x00, 0x00, 0x06, 0x83, 0xc1, 0x3d, 0x00, 0x00, 0x00, 0x00,
  0x06, 0x83, 0x41, 0x3d, 0x06, 0x83, 0xc1, 0x3d, 0x00, 0x00, 0x00, 0x00,
  0x44, 0x22, 0x11, 0xbe, 0x06, 0x83, 0xc1, 0x3d, 0x06, 0x83, 0xc1, 0x3d,
  0x44, 0x22, 0x11, 0x3e, 0x06, 0x83, 0x41, 0xbd, 0x06, 0x83, 0xc1, 0x3d,
  0x44, 0x22, 0x11, 0x3e, 0x06, 0x83, 0x41, 0xbd, 0x00, 0x00, 0x00, 0x00,
  0x06, 0x83, 0xc1, 0x3d, 0x06, 0x83, 0x41, 0x3d, 0x44, 0x22, 0x11, 0x3e,
  0x44, 0x22, 0x11, 0xbe, 0x44, 0x22, 0x11, 0xbe, 0x00, 0x00, 0x00, 0x00,
  0x44, 0x22, 0x11, 0x3e, 0x06, 0x83, 0x41, 0xbd, 0x44, 0x22, 0x11, 0x3e,
  0x00, 0x00, 0x00, 0x00, 0x00, 0x00, 0x00, 0x00, 0x44, 0x22, 0x11, 0x3e,
  0x06, 0x83, 0x41, 0xbd, 0x06, 0x83, 0xc1, 0x3d, 0x06, 0x83, 0x41, 0x3d,
  0x44, 0x22, 0x11, 0xbe, 0x06, 0x83, 0xc1, 0xbd, 0x06, 0x83, 0xc1, 0x3d,
  0x00, 0x00, 0x00, 0x00, 0x06, 0x83, 0xc1, 0x3d, 0x06, 0x83, 0xc1, 0x3d,
  0x06, 0x83, 0x41, 0xbd, 0x06, 0x83, 0x41, 0x3d, 0x06, 0x83, 0x41, 0xbd,
  0x00, 0x00, 0x00, 0x00, 0x44, 0x22, 0x11, 0x3e, 0x06, 0x83, 0x41, 0x3d,
  0x00, 0x00, 0x00, 0x00, 0x00, 0x00, 0x00, 0x00, 0x06, 0x83, 0x41, 0xbd,
  0x44, 0x22, 0x11, 0xbe, 0x06, 0x83, 0x41, 0x3d, 0x06, 0x83, 0x41, 0x3d,
  0x06, 0x83, 0x41, 0x3d, 0x44, 0x22, 0x11, 0xbe, 0x06, 0x83, 0x41, 0xbd,
  0x06, 0x83, 0xc1, 0xbd, 0x44, 0x22, 0x11, 0xbe, 0x06, 0x83, 0x41, 0xbd,
  0x06, 0x83, 0x41, 0xbd, 0x06, 0x83, 0x41, 0xbd, 0x06, 0x83, 0xc1, 0xbd,
  0x06, 0x83, 0x41, 0xbd, 0x06, 0x83, 0xc1, 0x3d, 0x06, 0x83, 0x41, 0xbd,
  0x06, 0x83, 0x41, 0x3d, 0x06, 0x83, 0xc1, 0x3d, 0x06, 0x83, 0xc1, 0x3d,
  0x06, 0x83, 0xc1, 0x3d, 0x00, 0x00, 0x00, 0x00, 0x06, 0x83, 0xc1, 0xbd,
  0x44, 0x22, 0x11, 0x3e, 0x06, 0x83, 0x41, 0xbd, 0x06, 0x83, 0xc1, 0xbd,
  0x06, 0x83, 0xc1, 0x3d, 0x44, 0x22, 0x11, 0x3e, 0x06, 0x83, 0xc1, 0xbd,
  0x44, 0x22, 0x11, 0xbe, 0x06, 0x83, 0x41, 0x3d, 0x06, 0x83, 0xc1, 0xbd,
  0x06, 0x83, 0xc1, 0xbd, 0x00, 0x00, 0x00, 0x00, 0x06, 0x83, 0x41, 0xbd,
  0x06, 0x83, 0xc1, 0xbd, 0x06, 0x83, 0xc1, 0x3d, 0x06, 0x83, 0x41, 0xbd,
  0x06, 0x83, 0x41, 0x3d, 0x06, 0x83, 0xc1, 0x3d, 0x44, 0x22, 0x11, 0x3e,
  0x06, 0x83, 0x41, 0x3d, 0x00, 0x00, 0x00, 0x00, 0x06, 0x83, 0x41, 0x3d,
  0x44, 0x22, 0x11, 0x3e, 0x44, 0x22, 0x11, 0x3e, 0x06, 0x83, 0x41, 0x3d,
  0x44, 0x22, 0x11, 0x3e, 0x44, 0x22, 0x11, 0xbe, 0x06, 0x83, 0xc1, 0x3d,
  0x06, 0x83, 0x41, 0x3d, 0x06, 0x83, 0xc1, 0xbd, 0x00, 0x00, 0x00, 0x00,
  0x06, 0x83, 0x41, 0x3d, 0x06, 0x83, 0xc1, 0xbd, 0x06, 0x83, 0xc1, 0x3d,
  0x06, 0x83, 0x41, 0xbd, 0x06, 0x83, 0x41, 0xbd, 0x06, 0x83, 0x41, 0x3d,
  0x44, 0x22, 0x11, 0xbe, 0x06, 0x83, 0x41, 0xbd, 0x00, 0x00, 0x00, 0x00,
  0x06, 0x83, 0x41, 0x3d, 0x06, 0x83, 0x41, 0xbd, 0x06, 0x83, 0xc1, 0xbd,
  0x00, 0x00, 0x00, 0x00, 0x06, 0x83, 0x41, 0x3d, 0x06, 0x83, 0x41, 0x3d,
  0x06, 0x83, 0x41, 0x3d, 0x06, 0x83, 0x41, 0x3d, 0x06, 0x83, 0x41, 0xbd,
  0x06, 0x83, 0x41, 0xbd, 0x06, 0x83, 0x41, 0x3d, 0x06, 0x83, 0x41, 0x3d,
  0x06, 0x83, 0x41, 0x3d, 0x44, 0x22, 0x11, 0xbe, 0x06, 0x83, 0x41, 0xbd,
  0x06, 0x83, 0xc1, 0xbd, 0x06, 0x83, 0xc1, 0xbd, 0x06, 0x83, 0x41, 0x3d,
  0x44, 0x22, 0x11, 0xbe, 0x44, 0x22, 0x11, 0x3e, 0x06, 0x83, 0xc1, 0xbd,
  0x06, 0x83, 0x41, 0x3d, 0x44, 0x22, 0x11, 0x3e, 0x06, 0x83, 0xc1, 0xbd,
  0x00, 0x00, 0x00, 0x00, 0x06, 0x83, 0x41, 0x3d, 0x06, 0x83, 0xc1, 0xbd,
  0x00, 0x00, 0x00, 0x00, 0x06, 0x83, 0x41, 0xbd, 0x44, 0x22, 0x11, 0xbe,
  0x06, 0x83, 0x41, 0x3d, 0x06, 0x83, 0xc1, 0xbd, 0x00, 0x00, 0x00, 0x00,
  0x06, 0x83, 0xc1, 0xbd, 0x44, 0x22, 0x11, 0x3e, 0x06, 0x83, 0x41, 0xbd,
  0x06, 0x83, 0x41, 0xbd, 0x44, 0x22, 0x11, 0xbe, 0x00, 0x00, 0x00, 0x00,
  0x06, 0x83, 0xc1, 0xbd, 0x06, 0x83, 0x41, 0xbd, 0x00, 0x00, 0x00, 0x00,
  0x06, 0x83, 0x41, 0xbd, 0x44, 0x22, 0x11, 0xbe, 0x00, 0x00, 0x00, 0x00,
  0x06, 0x83, 0xc1, 0x3d, 0x06, 0x83, 0x41, 0x3d, 0x06, 0x83, 0xc1, 0x3d,
  0x06, 0x83, 0xc1, 0x3d, 0x06, 0x83, 0x41, 0xbd, 0x06, 0x83, 0xc1, 0xbd,
  0x06, 0x83, 0xc1, 0xbd, 0x44, 0x22, 0x11, 0xbe, 0x06, 0x83, 0xc1, 0x3d,
  0x06, 0x83, 0x41, 0x3d, 0x06, 0x83, 0x41, 0x3d, 0x06, 0x83, 0x41, 0xbd,
  0x06, 0x83, 0x41, 0xbd, 0x44, 0x22, 0x11, 0x3e, 0x06, 0x83, 0xc1, 0x3d,
  0x44, 0x22, 0x11, 0xbe, 0x06, 0x83, 0x41, 0xbd, 0x06, 0x83, 0xc1, 0xbd,
  0x44, 0x22, 0x11, 0xbe, 0x06, 0x83, 0xc1, 0xbd, 0x44, 0x22, 0x11, 0xbe,
  0x06, 0x83, 0x41, 0xbd, 0x06, 0x83, 0x41, 0x3d, 0x44, 0x22, 0x11, 0xbe,
  0x06, 0x83, 0xc1, 0x3d, 0x00, 0x00, 0x00, 0x00, 0x06, 0x83, 0x41, 0xbd,
  0x06, 0x83, 0xc1, 0x3d, 0x06, 0x83, 0x41, 0x3d, 0x44, 0x22, 0x11, 0x3e,
  0x44, 0x22, 0x11, 0xbe, 0x00, 0x00, 0x00, 0x00, 0x44, 0x22, 0x11, 0xbe,
  0x44, 0x22, 0x11, 0xbe, 0x06, 0x83, 0xc1, 0x3d, 0x06, 0x83, 0xc1, 0xbd,
  0x06, 0x83, 0x41, 0xbd, 0x06, 0x83, 0xc1, 0x3d, 0x06, 0x83, 0xc1, 0x3d,
  0x06, 0x83, 0x41, 0xbd, 0x06, 0x83, 0x41, 0xbd, 0x00, 0x00, 0x00, 0x00,
  0x06, 0x83, 0x41, 0xbd, 0x00, 0x00, 0x00, 0x00, 0x06, 0x83, 0x41, 0xbd,
  0x06, 0x83, 0xc1, 0x3d, 0x06, 0x83, 0x41, 0xbd, 0x06, 0x83, 0x41, 0x3d,
  0x06, 0x83, 0xc1, 0x3d, 0x06, 0x83, 0x41, 0x3d, 0x06, 0x83, 0x41, 0xbd,
  0x44, 0x22, 0x11, 0xbe, 0x44, 0x22, 0x11, 0x3e, 0x06, 0x83, 0x41, 0x3d,
  0x00, 0x00, 0x00, 0x00, 0x00, 0x00, 0x00, 0x00, 0x00, 0x00, 0x00, 0x00,
  0x06, 0x83, 0xc1, 0xbd, 0x44, 0x22, 0x11, 0xbe, 0x44, 0x22, 0x11, 0xbe,
  0x06, 0x83, 0x41, 0xbd, 0x06, 0x83, 0xc1, 0x3d, 0x44, 0x22, 0x11, 0x3e,
  0x06, 0x83, 0xc1, 0xbd, 0x00, 0x00, 0x00, 0x00, 0x44, 0x22, 0x11, 0x3e,
  0x06, 0x83, 0xc1, 0x3d, 0x06, 0x83, 0xc1, 0xbd, 0x06, 0x83, 0xc1, 0x3d,
  0x06, 0x83, 0x41, 0x3d, 0x06, 0x83, 0xc1, 0xbd, 0x06, 0x83, 0xc1, 0xbd,
  0x06, 0x83, 0xc1, 0xbd, 0x06, 0x83, 0xc1, 0xbd, 0x06, 0x83, 0xc1, 0x3d,
  0x06, 0x83, 0x41, 0xbd, 0x06, 0x83, 0x41, 0x3d, 0x44, 0x22, 0x11, 0x3e,
  0x06, 0x83, 0xc1, 0x3d, 0x06, 0x83, 0xc1, 0xbd, 0x06, 0x83, 0x41, 0x3d,
  0x00, 0x00, 0x00, 0x00, 0x06, 0x83, 0x41, 0x3d, 0x00, 0x00, 0x00, 0x00,
  0x00, 0x00, 0x00, 0x00, 0x06, 0x83, 0xc1, 0xbd, 0x44, 0x22, 0x11, 0x3e,
  0x06, 0x83, 0xc1, 0x3d, 0x44, 0x22, 0x11, 0x3e, 0x06, 0x83, 0x41, 0x3d,
  0x06, 0x83, 0x41, 0xbd, 0x06, 0x83, 0x41, 0xbd, 0x06, 0x83, 0x41, 0xbd,
  0x06, 0x83, 0x41, 0x3d, 0x06, 0x83, 0xc1, 0x3d, 0x00, 0x00, 0x00, 0x00,
  0x00, 0x00, 0x00, 0x00, 0x44, 0x22, 0x11, 0x3e, 0x44, 0x22, 0x11, 0xbe,
  0x06, 0x83, 0xc1, 0xbd, 0x06, 0x83, 0xc1, 0xbd, 0x00, 0x00, 0x00, 0x00,
  0x44, 0x22, 0x11, 0xbe, 0x06, 0x83, 0x41, 0xbd, 0x06, 0x83, 0xc1, 0x3d,
  0x44, 0x22, 0x11, 0xbe, 0x06, 0x83, 0x41, 0x3d, 0x06, 0x83, 0xc1, 0xbd,
  0x44, 0x22, 0x11, 0xbe, 0x00, 0x00, 0x00, 0x00, 0x06, 0x83, 0x41, 0x3d,
  0x06, 0x83, 0xc1, 0xbd, 0x06, 0x83, 0x41, 0x3d, 0x06, 0x83, 0xc1, 0xbd,
  0x06, 0x83, 0xc1, 0x3d, 0x44, 0x22, 0x11, 0x3e, 0x44, 0x22, 0x11, 0x3e,
  0x06, 0x83, 0xc1, 0xbd, 0x00, 0x00, 0x00, 0x00, 0x06, 0x83, 0x41, 0xbd,
  0x44, 0x22, 0x11, 0xbe, 0x06, 0x83, 0xc1, 0xbd, 0x44, 0x22, 0x11, 0x3e,
  0x06, 0x83, 0x41, 0xbd, 0x06, 0x83, 0xc1, 0xbd, 0x44, 0x22, 0x11, 0xbe,
  0x44, 0x22, 0x11, 0x3e, 0x06, 0x83, 0x41, 0x3d, 0x06, 0x83, 0xc1, 0x3d,
  0x06, 0x83, 0x41, 0x3d, 0x44, 0x22, 0x11, 0xbe, 0x00, 0x00, 0x00, 0x00,
  0x06, 0x83, 0x41, 0x3d, 0x00, 0x00, 0x00, 0x00, 0x06, 0x83, 0x41, 0xbd,
  0x06, 0x83, 0x41, 0xbd, 0x44, 0x22, 0x11, 0xbe, 0x06, 0x83, 0x41, 0x3d,
  0x06, 0x83, 0x41, 0xbd, 0x44, 0x22, 0x11, 0x3e, 0x06, 0x83, 0xc1, 0xbd,
  0x44, 0x22, 0x11, 0x3e, 0x00, 0x00, 0x00, 0x00, 0x06, 0x83, 0x41, 0xbd,
  0x06, 0x83, 0xc1, 0xbd, 0x06, 0x83, 0x41, 0xbd, 0x06, 0x83, 0xc1, 0x3d,
  0x06, 0x83, 0xc1, 0xbd, 0x00, 0x00, 0x00, 0x00, 0x06, 0x83, 0x41, 0xbd,
  0x00, 0x00, 0x00, 0x00, 0x06, 0x83, 0xc1, 0xbd, 0x06, 0x83, 0x41, 0x3d,
  0x06, 0x83, 0xc1, 0x3d, 0x06, 0x83, 0x41, 0x3d, 0x00, 0x00, 0x00, 0x00,
  0x06, 0x83, 0x41, 0xbd, 0x06, 0x83, 0x41, 0xbd, 0x06, 0x83, 0xc1, 0x3d,
  0x06, 0x83, 0xc1, 0x3d, 0x44, 0x22, 0x11, 0xbe, 0x06, 0x83, 0x41, 0x3d,
  0x06, 0x83, 0x41, 0xbd, 0x06, 0x83, 0xc1, 0xbd, 0x06, 0x83, 0xc1, 0xbd,
  0x06, 0x83, 0x41, 0x3d, 0x06, 0x83, 0xc1, 0xbd, 0x00, 0x00, 0x00, 0x00,
  0x06, 0x83, 0x41, 0x3d, 0x00, 0x00, 0x00, 0x00, 0x44, 0x22, 0x11, 0x3e,
  0x06, 0x83, 0x41, 0xbd, 0x06, 0x83, 0x41, 0x3d, 0x06, 0x83, 0xc1, 0x3d,
  0x06, 0x83, 0xc1, 0x3d, 0x06, 0x83, 0x41, 0x3d, 0x06, 0x83, 0x41, 0x3d,
  0x06, 0x83, 0x41, 0xbd, 0x44, 0x22, 0x11, 0x3e, 0x06, 0x83, 0x41, 0xbd,
  0x06, 0x83, 0x41, 0xbd, 0x44, 0x22, 0x11, 0xbe, 0x06, 0x83, 0x41, 0x3d,
  0x44, 0x22, 0x11, 0x3e, 0x00, 0x00, 0x00, 0x00, 0x06, 0x83, 0xc1, 0xbd,
  0x00, 0x00, 0x00, 0x00, 0x06, 0x83, 0xc1, 0x3d, 0x06, 0x83, 0xc1, 0xbd,
  0x44, 0x22, 0x11, 0x3e, 0x44, 0x22, 0x11, 0xbe, 0x06, 0x83, 0x41, 0xbd,
  0x06, 0x83, 0x41, 0x3d, 0x06, 0x83, 0x41, 0xbd, 0x44, 0x22, 0x11, 0xbe,
  0x44, 0x22, 0x11, 0x3e, 0x00, 0x00, 0x00, 0x00, 0x44, 0x22, 0x11, 0x3e,
  0x06, 0x83, 0xc1, 0xbd, 0x44, 0x22, 0x11, 0xbe, 0x00, 0x00, 0x00, 0x00,
  0x00, 0x00, 0x00, 0x00, 0x00, 0x00, 0x00, 0x00, 0x44, 0x22, 0x11, 0xbe,
  0x06, 0x83, 0xc1, 0x3d, 0x06, 0x83, 0xc1, 0xbd, 0x06, 0x83, 0x41, 0xbd,
  0x06, 0x83, 0xc1, 0xbd, 0x44, 0x22, 0x11, 0xbe, 0x00, 0x00, 0x00, 0x00,
  0x44, 0x22, 0x11, 0x3e, 0x06, 0x83, 0x41, 0x3d, 0x06, 0x83, 0xc1, 0xbd,
  0x44, 0x22, 0x11, 0x3e, 0x00, 0x00, 0x00, 0x00, 0x44, 0x22, 0x11, 0x3e,
  0x06, 0x83, 0x41, 0xbd, 0x06, 0x83, 0xc1, 0x3d, 0x44, 0x22, 0x11, 0xbe,
  0x06, 0x83, 0xc1, 0x3d, 0x06, 0x83, 0xc1, 0xbd, 0x06, 0x83, 0xc1, 0x3d,
  0x06, 0x83, 0x41, 0x3d, 0x06, 0x83, 0x41, 0xbd, 0x06, 0x83, 0xc1, 0x3d,
  0x06, 0x83, 0xc1, 0xbd, 0x00, 0x00, 0x00, 0x00, 0x06, 0x83, 0x41, 0x3d,
  0x00, 0x00, 0x00, 0x00, 0x06, 0x83, 0x41, 0xbd, 0x44, 0x22, 0x11, 0xbe,
  0x44, 0x22, 0x11, 0xbe, 0x06, 0x83, 0xc1, 0xbd, 0x06, 0x83, 0xc1, 0xbd,
  0x06, 0x83, 0xc1, 0xbd, 0x06, 0x83, 0xc1, 0xbd, 0x00, 0x00, 0x00, 0x00,
  0x06, 0x83, 0x41, 0x3d, 0x06, 0x83, 0xc1, 0x3d, 0x00, 0x00, 0x00, 0x00,
  0x06, 0x83, 0xc1, 0x3d, 0x00, 0x00, 0x00, 0x00, 0x00, 0x00, 0x00, 0x00,
  0x44, 0x22, 0x11, 0x3e, 0x44, 0x22, 0x11, 0x3e, 0x06, 0x83, 0xc1, 0x3d,
  0x44, 0x22, 0x11, 0x3e, 0x44, 0x22, 0x11, 0x3e, 0x00, 0x00, 0x00, 0x00,
  0x44, 0x22, 0x11, 0x3e, 0x06, 0x83, 0xc1, 0x3d, 0x06, 0x83, 0x41, 0xbd,
  0x06, 0x83, 0xc1, 0x3d, 0x06, 0x83, 0xc1, 0x3d, 0x06, 0x83, 0xc1, 0xbd,
  0x06, 0x83, 0xc1, 0xbd, 0x06, 0x83, 0x41, 0xbd, 0x00, 0x00, 0x00, 0x00,
  0x00, 0x00, 0x00, 0x00, 0x06, 0x83, 0x41, 0x3d, 0x06, 0x83, 0x41, 0x3d,
  0x44, 0x22, 0x11, 0xbe, 0x06, 0x83, 0x41, 0xbd, 0x06, 0x83, 0xc1, 0x3d,
  0x44, 0x22, 0x11, 0x3e, 0x44, 0x22, 0x11, 0x3e, 0x00, 0x00, 0x00, 0x00,
  0x06, 0x83, 0x41, 0x3d, 0x44, 0x22, 0x11, 0xbe, 0x06, 0x83, 0xc1, 0xbd,
  0x06, 0x83, 0x41, 0xbd, 0x06, 0x83, 0x41, 0xbd, 0x44, 0x22, 0x11, 0x3e,
  0x44, 0x22, 0x11, 0xbe, 0x06, 0x83, 0xc1, 0x3d, 0x06, 0x83, 0xc1, 0xbd,
  0x44, 0x22, 0x11, 0xbe, 0x00, 0x00, 0x00, 0x00, 0x44, 0x22, 0x11, 0xbe,
  0x06, 0x83, 0xc1, 0xbd, 0x00, 0x00, 0x00, 0x00, 0x06, 0x83, 0xc1, 0xbd,
  0x44, 0x22, 0x11, 0xbe, 0x44, 0x22, 0x11, 0x3e, 0x00, 0x00, 0x00, 0x00,
  0x06, 0x83, 0xc1, 0x3d, 0x06, 0x83, 0x41, 0x3d, 0x06, 0x83, 0xc1, 0x3d,
  0x06, 0x83, 0x41, 0xbd, 0x00, 0x00, 0x00, 0x00, 0x00, 0x00, 0x00, 0x00,
  0x06, 0x83, 0x41, 0x3d, 0x00, 0x00, 0x00, 0x00, 0x06, 0x83, 0xc1, 0x3d,
  0x44, 0x22, 0x11, 0x3e, 0x44, 0x22, 0x11, 0xbe, 0x06, 0x83, 0xc1, 0x3d,
  0x06, 0x83, 0x41, 0xbd, 0x06, 0x83, 0x41, 0x3d, 0x06, 0x83, 0xc1, 0xbd,
  0x44, 0x22, 0x11, 0xbe, 0x00, 0x00, 0x00, 0x00, 0x06, 0x83, 0xc1, 0x3d,
  0x06, 0x83, 0x41, 0xbd, 0x06, 0x83, 0x41, 0x3d, 0x06, 0x83, 0xc1, 0xbd,
  0x44, 0x22, 0x11, 0xbe, 0x44, 0x22, 0x11, 0x3e, 0x06, 0x83, 0x41, 0xbd,
  0x06, 0x83, 0x41, 0x3d, 0x06, 0x83, 0xc1, 0x3d, 0x06, 0x83, 0x41, 0x3d,
  0x06, 0x83, 0xc1, 0xbd, 0x44, 0x22, 0x11, 0x3e, 0x06, 0x83, 0xc1, 0x3d,
  0x06, 0x83, 0x41, 0xbd, 0x00, 0x00, 0x00, 0x00, 0x06, 0x83, 0x41, 0x3d,
  0x44, 0x22, 0x11, 0x3e, 0x44, 0x22, 0x11, 0xbe, 0x06, 0x83, 0x41, 0x3d,
  0x06, 0x83, 0x41, 0x3d, 0x06, 0x83, 0xc1, 0xbd, 0x06, 0x83, 0xc1, 0xbd,
  0x06, 0x83, 0xc1, 0xbd, 0x06, 0x83, 0x41, 0x3d, 0x00, 0x00, 0x00, 0x00,
  0x06, 0x83, 0xc1, 0x3d, 0x06, 0x83, 0xc1, 0x3d, 0x06, 0x83, 0xc1, 0xbd,
  0x06, 0x83, 0xc1, 0x3d, 0x06, 0x83, 0xc1, 0x3d, 0x06, 0x83, 0xc1, 0x3d,
  0x44, 0x22, 0x11, 0xbe, 0x06, 0x83, 0xc1, 0x3d, 0x06, 0x83, 0x41, 0x3d,
  0x44, 0x22, 0x11, 0xbe, 0x06, 0x83, 0x41, 0xbd, 0x06, 0x83, 0xc1, 0xbd,
  0x06, 0x83, 0xc1, 0xbd, 0x06, 0x83, 0xc1, 0xbd, 0x00, 0x00, 0x00, 0x00,
  0x06, 0x83, 0xc1, 0xbd, 0x06, 0x83, 0xc1, 0x3d, 0x06, 0x83, 0xc1, 0xbd,
  0x06, 0x83, 0x41, 0x3d, 0x06, 0x83, 0x41, 0xbd, 0x06, 0x83, 0xc1, 0xbd,
  0x06, 0x83, 0x41, 0x3d, 0x06, 0x83, 0x41, 0xbd, 0x44, 0x22, 0x11, 0xbe,
  0x06, 0x83, 0xc1, 0xbd, 0x44, 0x22, 0x11, 0xbe, 0x06, 0x83, 0x41, 0x3d,
  0x06, 0x83, 0xc1, 0xbd, 0x44, 0x22, 0x11, 0xbe, 0x06, 0x83, 0xc1, 0x3d,
  0x00, 0x00, 0x00, 0x00, 0x06, 0x83, 0x41, 0xbd, 0x06, 0x83, 0x41, 0xbd,
  0x00, 0x00, 0x00, 0x00, 0x06, 0x83, 0xc1, 0x3d, 0x06, 0x83, 0x41, 0xbd,
  0x06, 0x83, 0x41, 0xbd, 0x06, 0x83, 0x41, 0x3d, 0x06, 0x83, 0x41, 0x3d,
  0x06, 0x83, 0xc1, 0xbd, 0x06, 0x83, 0x41, 0x3d, 0x06, 0x83, 0x41, 0xbd,
  0x00, 0x00, 0x00, 0x00, 0x06, 0x83, 0xc1, 0xbd, 0x00, 0x00, 0x00, 0x00,
  0x06, 0x83, 0xc1, 0xbd, 0x44, 0x22, 0x11, 0x3e, 0x06, 0x83, 0x41, 0x3d,
  0x44, 0x22, 0x11, 0x3e, 0x06, 0x83, 0xc1, 0xbd, 0x00, 0x00, 0x00, 0x00,
  0x44, 0x22, 0x11, 0x3e, 0x06, 0x83, 0x41, 0x3d, 0x06, 0x83, 0xc1, 0x3d,
  0x06, 0x83, 0x41, 0x3d, 0x06, 0x83, 0xc1, 0x3d, 0x00, 0x00, 0x00, 0x00,
  0x06, 0x83, 0xc1, 0xbd, 0x06, 0x83, 0xc1, 0x3d, 0x06, 0x83, 0x41, 0xbd,
  0x44, 0x22, 0x11, 0x3e, 0x06, 0x83, 0xc1, 0x3d, 0x00, 0x00, 0x00, 0x00,
  0x44, 0x22, 0x11, 0xbe, 0x44, 0x22, 0x11, 0xbe, 0x00, 0x00, 0x00, 0x00,
  0x44, 0x22, 0x11, 0x3e, 0x06, 0x83, 0x41, 0x3d, 0x06, 0x83, 0x41, 0xbd,
  0x06, 0x83, 0xc1, 0x3d, 0x06, 0x83, 0x41, 0x3d, 0x06, 0x83, 0xc1, 0x3d,
  0x06, 0x83, 0x41, 0x3d, 0x44, 0x22, 0x11, 0x3e, 0x00, 0x00, 0x00, 0x00,
  0x06, 0x83, 0xc1, 0xbd, 0x06, 0x83, 0xc1, 0x3d, 0x44, 0x22, 0x11, 0x3e,
  0x06, 0x83, 0xc1, 0x3d, 0x06, 0x83, 0xc1, 0x3d, 0x06, 0x83, 0xc1, 0x3d,
  0x00, 0x00, 0x00, 0x00, 0x06, 0x83, 0x41, 0x3d, 0x06, 0x83, 0x41, 0xbd,
  0x06, 0x83, 0x41, 0x3d, 0x06, 0x83, 0x41, 0x3d, 0x06, 0x83, 0xc1, 0x3d,
  0x00, 0x00, 0x00, 0x00, 0x00, 0x00, 0x00, 0x00, 0x00, 0x00, 0x00, 0x00,
  0x06, 0x83, 0xc1, 0x3d, 0x06, 0x83, 0x41, 0x3d, 0x06, 0x83, 0xc1, 0x3d,
  0x44, 0x22, 0x11, 0x3e, 0x44, 0x22, 0x11, 0x3e, 0x00, 0x00, 0x00, 0x00,
  0x44, 0x22, 0x11, 0x3e, 0x06, 0x83, 0xc1, 0x3d, 0x06, 0x83, 0xc1, 0x3d,
  0x06, 0x83, 0x41, 0x3d, 0x06, 0x83, 0x41, 0x3d, 0x00, 0x00, 0x00, 0x00,
  0x00, 0x00, 0x00, 0x00, 0x06, 0x83, 0x41, 0xbd, 0x44, 0x22, 0x11, 0xbe,
  0x06, 0x83, 0x41, 0xbd, 0x06, 0x83, 0xc1, 0x3d, 0x00, 0x00, 0x00, 0x00,
  0x44, 0x22, 0x11, 0x3e, 0x06, 0x83, 0xc1, 0xbd, 0x06, 0x83, 0x41, 0x3d,
  0x44, 0x22, 0x11, 0xbe, 0x44, 0x22, 0x11, 0xbe, 0x06, 0x83, 0x41, 0x3d,
  0x06, 0x83, 0xc1, 0xbd, 0x44, 0x22, 0x11, 0xbe, 0x00, 0x00, 0x00, 0x00,
  0x00, 0x00, 0x00, 0x00, 0x06, 0x83, 0xc1, 0x3d, 0x00, 0x00, 0x00, 0x00,
  0x06, 0x83, 0xc1, 0x3d, 0x06, 0x83, 0x41, 0x3d, 0x06, 0x83, 0xc1, 0xbd,
  0x06, 0x83, 0x41, 0xbd, 0x00, 0x00, 0x00, 0x00, 0x00, 0x00, 0x00, 0x00,
  0x44, 0x22, 0x11, 0xbe, 0x06, 0x83, 0xc1, 0xbd, 0x06, 0x83, 0xc1, 0x3d,
  0x06, 0x83, 0x41, 0xbd, 0x00, 0x00, 0x00, 0x00, 0x00, 0x00, 0x00, 0x00,
  0x00, 0x00, 0x00, 0x00, 0x06, 0x83, 0x41, 0xbd, 0x06, 0x83, 0x41, 0xbd,
  0x44, 0x22, 0x11, 0x3e, 0x06, 0x83, 0x41, 0x3d, 0x44, 0x22, 0x11, 0xbe,
  0x00, 0x00, 0x00, 0x00, 0x06, 0x83, 0x41, 0x3d, 0x00, 0x00, 0x00, 0x00,
  0x44, 0x22, 0x11, 0xbe, 0x06, 0x83, 0x41, 0x3d, 0x00, 0x00, 0x00, 0x00,
  0x06, 0x83, 0xc1, 0xbd, 0x06, 0x83, 0xc1, 0x3d, 0x44, 0x22, 0x11, 0x3e,
  0x06, 0x83, 0x41, 0xbd, 0x44, 0x22, 0x11, 0x3e, 0x00, 0x00, 0x00, 0x00,
  0x44, 0x22, 0x11, 0xbe, 0x06, 0x83, 0x41, 0xbd, 0x06, 0x83, 0xc1, 0x3d,
  0x06, 0x83, 0x41, 0x3d, 0x44, 0x22, 0x11, 0x3e, 0x06, 0x83, 0x41, 0x3d,
  0x06, 0x83, 0xc1, 0x3d, 0x06, 0x83, 0xc1, 0xbd, 0x44, 0x22, 0x11, 0xbe,
  0x00, 0x00, 0x00, 0x00, 0x06, 0x83, 0x41, 0xbd, 0x00, 0x00, 0x00, 0x00,
  0x44, 0x22, 0x11, 0x3e, 0x06, 0x83, 0xc1, 0x3d, 0x44, 0x22, 0x11, 0x3e,
  0x06, 0x83, 0xc1, 0xbd, 0x00, 0x00, 0x00, 0x00, 0x06, 0x83, 0xc1, 0x3d,
  0x06, 0x83, 0x41, 0x3d, 0x44, 0x22, 0x11, 0xbe, 0x00, 0x00, 0x00, 0x00,
  0x06, 0x83, 0xc1, 0xbd, 0x06, 0x83, 0x41, 0xbd, 0x06, 0x83, 0x41, 0x3d,
  0x06, 0x83, 0x41, 0x3d, 0x06, 0x83, 0xc1, 0xbd, 0x06, 0x83, 0x41, 0x3d,
  0x06, 0x83, 0x41, 0xbd, 0x06, 0x83, 0xc1, 0x3d, 0x06, 0x83, 0xc1, 0x3d,
  0x00, 0x00, 0x00, 0x00, 0x00, 0x00, 0x00, 0x00, 0x00, 0x00, 0x00, 0x00,
  0x44, 0x22, 0x11, 0xbe, 0x06, 0x83, 0xc1, 0x3d, 0x06, 0x83, 0xc1, 0xbd,
  0x06, 0x83, 0x41, 0xbd, 0x06, 0x83, 0xc1, 0x3d, 0x06, 0x83, 0xc1, 0x3d,
  0x44, 0x22, 0x11, 0xbe, 0x06, 0x83, 0x41, 0x3d, 0x06, 0x83, 0xc1, 0xbd,
  0x00, 0x00, 0x00, 0x00, 0x06, 0x83, 0x41, 0xbd, 0x44, 0x22, 0x11, 0x3e,
  0x06, 0x83, 0x41, 0xbd, 0x06, 0x83, 0xc1, 0x3d, 0x44, 0x22, 0x11, 0x3e,
  0x06, 0x83, 0xc1, 0xbd, 0x06, 0x83, 0x41, 0xbd, 0x44, 0x22, 0x11, 0x3e,
  0x06, 0x83, 0x41, 0xbd, 0x06, 0x83, 0xc1, 0x3d, 0x06, 0x83, 0x41, 0x3d,
  0x06, 0x83, 0xc1, 0x3d, 0x06, 0x83, 0x41, 0xbd, 0x44, 0x22, 0x11, 0x3e,
  0x06, 0x83, 0x41, 0xbd, 0x44, 0x22, 0x11, 0x3e, 0x06, 0x83, 0x41, 0x3d,
  0x06, 0x83, 0xc1, 0xbd, 0x06, 0x83, 0x41, 0x3d, 0x44, 0x22, 0x11, 0x3e,
  0x06, 0x83, 0x41, 0xbd, 0x06, 0x83, 0x41, 0xbd, 0x06, 0x83, 0xc1, 0xbd,
  0x06, 0x83, 0xc1, 0xbd, 0x06, 0x83, 0x41, 0xbd, 0x44, 0x22, 0x11, 0x3e,
  0x06, 0x83, 0x41, 0xbd, 0x06, 0x83, 0x41, 0x3d, 0x44, 0x22, 0x11, 0x3e,
  0x00, 0x00, 0x00, 0x00, 0x06, 0x83, 0xc1, 0xbd, 0x00, 0x00, 0x00, 0x00,
  0x44, 0x22, 0x11, 0xbe, 0x06, 0x83, 0xc1, 0x3d, 0x06, 0x83, 0xc1, 0xbd,
  0x06, 0x83, 0xc1, 0xbd, 0x06, 0x83, 0xc1, 0xbd, 0x06, 0x83, 0x41, 0xbd,
  0x06, 0x83, 0x41, 0x3d, 0x44, 0x22, 0x11, 0xbe, 0x06, 0x83, 0x41, 0xbd,
  0x06, 0x83, 0x41, 0xbd, 0x06, 0x83, 0xc1, 0xbd, 0x06, 0x83, 0x41, 0x3d,
  0x06, 0x83, 0xc1, 0x3d, 0x06, 0x83, 0x41, 0x3d, 0x00, 0x00, 0x00, 0x00,
  0x06, 0x83, 0x41, 0x3d, 0x06, 0x83, 0x41, 0xbd, 0x06, 0x83, 0xc1, 0xbd,
  0x00, 0x00, 0x00, 0x00, 0x06, 0x83, 0x41, 0x3d, 0x44, 0x22, 0x11, 0xbe,
  0x06, 0x83, 0xc1, 0x3d, 0x06, 0x83, 0x41, 0xbd, 0x44, 0x22, 0x11, 0x3e,
  0x06, 0x83, 0xc1, 0x3d, 0x44, 0x22, 0x11, 0xbe, 0x06, 0x83, 0xc1, 0x3d,
  0x06, 0x83, 0xc1, 0xbd, 0x06, 0x83, 0x41, 0x3d, 0x44, 0x22, 0x11, 0x3e,
  0x44, 0x22, 0x11, 0xbe, 0x06, 0x83, 0x41, 0xbd, 0x06, 0x83, 0xc1, 0x3d,
  0x06, 0x83, 0xc1, 0xbd, 0x06, 0x83, 0xc1, 0xbd, 0x44, 0x22, 0x11, 0x3e,
  0x44, 0x22, 0x11, 0xbe, 0x06, 0x83, 0xc1, 0xbd, 0x06, 0x83, 0x41, 0xbd,
  0x06, 0x83, 0xc1, 0x3d, 0x44, 0x22, 0x11, 0xbe, 0x06, 0x83, 0x41, 0xbd,
  0x44, 0x22, 0x11, 0x3e, 0x06, 0x83, 0xc1, 0xbd, 0x00, 0x00, 0x00, 0x00,
  0x44, 0x22, 0x11, 0xbe, 0x06, 0x83, 0x41, 0x3d, 0x00, 0x00, 0x00, 0x00,
  0x00, 0x00, 0x00, 0x00, 0x06, 0x83, 0x41, 0x3d, 0x44, 0x22, 0x11, 0x3e,
  0x00, 0x00, 0x00, 0x00, 0x44, 0x22, 0x11, 0xbe, 0x06, 0x83, 0xc1, 0x3d,
  0x06, 0x83, 0x41, 0x3d, 0x44, 0x22, 0x11, 0xbe, 0x44, 0x22, 0x11, 0x3e,
  0x06, 0x83, 0x41, 0xbd, 0x44, 0x22, 0x11, 0xbe, 0x06, 0x83, 0xc1, 0x3d,
  0x00, 0x00, 0x00, 0x00, 0x06, 0x83, 0xc1, 0xbd, 0x06, 0x83, 0xc1, 0xbd,
  0x06, 0x83, 0x41, 0xbd, 0x44, 0x22, 0x11, 0x3e, 0x06, 0x83, 0xc1, 0xbd,
  0x06, 0x83, 0xc1, 0xbd, 0x44, 0x22, 0x11, 0xbe, 0x44, 0x22, 0x11, 0xbe,
  0x06, 0x83, 0xc1, 0x3d, 0x06, 0x83, 0xc1, 0x3d, 0x44, 0x22, 0x11, 0xbe,
  0x06, 0x83, 0x41, 0xbd, 0x06, 0x83, 0x41, 0x3d, 0x44, 0x22, 0x11, 0x3e,
  0x44, 0x22, 0x11, 0x3e, 0x44, 0x22, 0x11, 0x3e, 0x06, 0x83, 0x41, 0x3d,
  0x06, 0x83, 0xc1, 0xbd, 0x44, 0x22, 0x11, 0xbe, 0x06, 0x83, 0x41, 0xbd,
  0x06, 0x83, 0xc1, 0x3d, 0x06, 0x83, 0xc1, 0xbd, 0x44, 0x22, 0x11, 0x3e,
  0x00, 0x00, 0x00, 0x00, 0x06, 0x83, 0x41, 0x3d, 0x06, 0x83, 0xc1, 0x3d,
  0x06, 0x83, 0x41, 0xbd, 0x06, 0x83, 0xc1, 0xbd, 0x00, 0x00, 0x00, 0x00,
  0x06, 0x83, 0xc1, 0x3d, 0x44, 0x22, 0x11, 0x3e, 0x44, 0x22, 0x11, 0xbe,
  0x00, 0x00, 0x00, 0x00, 0x06, 0x83, 0xc1, 0x3d, 0x06, 0x83, 0xc1, 0xbd,
  0x00, 0x00, 0x00, 0x00, 0x44, 0x22, 0x11, 0x3e, 0x06, 0x83, 0x41, 0xbd,
  0x06, 0x83, 0xc1, 0xbd, 0x06, 0x83, 0xc1, 0x3d, 0x06, 0x83, 0xc1, 0x3d,
  0x00, 0x00, 0x00, 0x00, 0x44, 0x22, 0x11, 0xbe, 0x44, 0x22, 0x11, 0xbe,
  0x06, 0x83, 0xc1, 0x3d, 0x44, 0x22, 0x11, 0xbe, 0x06, 0x83, 0x41, 0xbd,
  0x44, 0x22, 0x11, 0x3e, 0x06, 0x83, 0xc1, 0xbd, 0x06, 0x83, 0xc1, 0xbd,
  0x06, 0x83, 0xc1, 0xbd, 0x44, 0x22, 0x11, 0x3e, 0x06, 0x83, 0xc1, 0xbd,
  0x00, 0x00, 0x00, 0x00, 0x06, 0x83, 0xc1, 0x3d, 0x06, 0x83, 0xc1, 0xbd,
  0x06, 0x83, 0x41, 0xbd, 0x06, 0x83, 0x41, 0x3d, 0x00, 0x00, 0x00, 0x00,
  0x06, 0x83, 0xc1, 0x3d, 0x06, 0x83, 0xc1, 0xbd, 0x06, 0x83, 0x41, 0x3d,
  0x06, 0x83, 0x41, 0xbd, 0x06, 0x83, 0xc1, 0xbd, 0x06, 0x83, 0x41, 0xbd,
  0x44, 0x22, 0x11, 0xbe, 0x06, 0x83, 0xc1, 0x3d, 0x06, 0x83, 0x41, 0xbd,
  0x44, 0x22, 0x11, 0x3e, 0x00, 0x00, 0x00, 0x00, 0x44, 0x22, 0x11, 0xbe,
  0x06, 0x83, 0x41, 0xbd, 0x06, 0x83, 0xc1, 0xbd, 0x00, 0x00, 0x00, 0x00,
  0x06, 0x83, 0x41, 0x3d, 0x00, 0x00, 0x00, 0x00, 0x06, 0x83, 0xc1, 0xbd,
  0x06, 0x83, 0xc1, 0x3d, 0x06, 0x83, 0xc1, 0xbd, 0x06, 0x83, 0x41, 0xbd,
  0x00, 0x00, 0x00, 0x00, 0x44, 0x22, 0x11, 0xbe, 0x00, 0x00, 0x00, 0x00,
  0x06, 0x83, 0xc1, 0x3d, 0x44, 0x22, 0x11, 0x3e, 0x06, 0x83, 0x41, 0x3d,
  0x06, 0x83, 0xc1, 0xbd, 0x00, 0x00, 0x00, 0x00, 0x06, 0x83, 0x41, 0xbd,
  0x06, 0x83, 0x41, 0xbd, 0x06, 0x83, 0x41, 0x3d, 0x06, 0x83, 0x41, 0xbd,
  0x06, 0x83, 0x41, 0x3d, 0x06, 0x83, 0x41, 0xbd, 0x06, 0x83, 0xc1, 0x3d,
  0x06, 0x83, 0xc1, 0x3d, 0x06, 0x83, 0xc1, 0x3d, 0x44, 0x22, 0x11, 0x3e,
  0x00, 0x00, 0x00, 0x00, 0x06, 0x83, 0xc1, 0x3d, 0x06, 0x83, 0x41, 0x3d,
  0x44, 0x22, 0x11, 0x3e, 0x06, 0x83, 0x41, 0xbd, 0x06, 0x83, 0x41, 0x3d,
  0x44, 0x22, 0x11, 0xbe, 0x44, 0x22, 0x11, 0x3e, 0x06, 0x83, 0x41, 0xbd,
  0x06, 0x83, 0xc1, 0xbd, 0x06, 0x83, 0xc1, 0xbd, 0x06, 0x83, 0x41, 0x3d,
  0x06, 0x83, 0x41, 0xbd, 0x06, 0x83, 0x41, 0xbd, 0x00, 0x00, 0x00, 0x00,
  0x06, 0x83, 0xc1, 0x3d, 0x06, 0x83, 0x41, 0xbd, 0x06, 0x83, 0xc1, 0xbd,
  0x44, 0x22, 0x11, 0xbe, 0x00, 0x00, 0x00, 0x00, 0x00, 0x00, 0x00, 0x00,
  0x00, 0x00, 0x00, 0x00, 0x06, 0x83, 0x41, 0x3d, 0x06, 0x83, 0xc1, 0x3d,
  0x00, 0x00, 0x00, 0x00, 0x06, 0x83, 0xc1, 0xbd, 0x06, 0x83, 0xc1, 0xbd,
  0x06, 0x83, 0xc1, 0xbd, 0x06, 0x83, 0xc1, 0xbd, 0x06, 0x83, 0x41, 0xbd,
  0x06, 0x83, 0xc1, 0x3d, 0x44, 0x22, 0x11, 0xbe, 0x06, 0x83, 0x41, 0x3d,
  0x06, 0x83, 0x41, 0xbd, 0x06, 0x83, 0x41, 0xbd, 0x06, 0x83, 0x41, 0x3d,
  0x06, 0x83, 0xc1, 0xbd, 0x06, 0x83, 0xc1, 0xbd, 0x06, 0x83, 0xc1, 0x3d,
  0x06, 0x83, 0x41, 0xbd, 0x06, 0x83, 0xc1, 0x3d, 0x06, 0x83, 0xc1, 0x3d,
  0x06, 0x83, 0x41, 0x3d, 0x06, 0x83, 0x41, 0x3d, 0x44, 0x22, 0x11, 0x3e,
  0x06, 0x83, 0xc1, 0xbd, 0x06, 0x83, 0x41, 0xbd, 0x00, 0x00, 0x00, 0x00,
  0x06, 0x83, 0x41, 0x3d, 0x44, 0x22, 0x11, 0x3e, 0x00, 0x00, 0x00, 0x00,
  0x00, 0x00, 0x00, 0x00, 0x06, 0x83, 0xc1, 0x3d, 0x06, 0x83, 0x41, 0x3d,
  0x06, 0x83, 0x41, 0x3d, 0x06, 0x83, 0x41, 0xbd, 0x44, 0x22, 0x11, 0xbe,
  0x06, 0x83, 0x41, 0x3d, 0x06, 0x83, 0x41, 0xbd, 0x06, 0x83, 0xc1, 0xbd,
  0x06, 0x83, 0xc1, 0xbd, 0x06, 0x83, 0xc1, 0xbd, 0x06, 0x83, 0xc1, 0xbd,
  0x44, 0x22, 0x11, 0xbe, 0x44, 0x22, 0x11, 0x3e, 0x06, 0x83, 0xc1, 0xbd,
  0x00, 0x00, 0x00, 0x00, 0x06, 0x83, 0xc1, 0x3d, 0x06, 0x83, 0x41, 0x3d,
  0x06, 0x83, 0x41, 0x3d, 0x44, 0x22, 0x11, 0xbe, 0x06, 0x83, 0xc1, 0x3d,
  0x44, 0x22, 0x11, 0x3e, 0x06, 0x83, 0xc1, 0xbd, 0x44, 0x22, 0x11, 0xbe,
  0x06, 0x83, 0xc1, 0x3d, 0x00, 0x00, 0x00, 0x00, 0x44, 0x22, 0x11, 0xbe,
  0x06, 0x83, 0xc1, 0x3d, 0x00, 0x00, 0x00, 0x00, 0x00, 0x00, 0x00, 0x00,
  0x06, 0x83, 0x41, 0x3d, 0x06, 0x83, 0xc1, 0x3d, 0x06, 0x83, 0xc1, 0xbd,
  0x06, 0x83, 0x41, 0xbd, 0x06, 0x83, 0x41, 0x3d, 0x06, 0x83, 0x41, 0x3d,
  0x00, 0x00, 0x00, 0x00, 0x06, 0x83, 0xc1, 0x3d, 0x06, 0x83, 0xc1, 0x3d,
  0x44, 0x22, 0x11, 0x3e, 0x44, 0x22, 0x11, 0x3e, 0x44, 0x22, 0x11, 0xbe,
  0x06, 0x83, 0x41, 0xbd, 0x06, 0x83, 0x41, 0x3d, 0x06, 0x83, 0xc1, 0xbd,
  0x06, 0x83, 0xc1, 0x3d, 0x06, 0x83, 0x41, 0x3d, 0x06, 0x83, 0x41, 0x3d,
  0x06, 0x83, 0x41, 0x3d, 0x06, 0x83, 0xc1, 0x3d, 0x06, 0x83, 0xc1, 0xbd,
  0x06, 0x83, 0xc1, 0x3d, 0x06, 0x83, 0xc1, 0x3d, 0x06, 0x83, 0xc1, 0xbd,
  0x00, 0x00, 0x00, 0x00, 0x44, 0x22, 0x11, 0x3e, 0x06, 0x83, 0xc1, 0x3d,
  0x44, 0x22, 0x11, 0xbe, 0x44, 0x22, 0x11, 0x3e, 0x06, 0x83, 0xc1, 0xbd,
  0x06, 0x83, 0x41, 0x3d, 0x06, 0x83, 0xc1, 0xbd, 0x44, 0x22, 0x11, 0x3e,
  0x06, 0x83, 0xc1, 0x3d, 0x44, 0x22, 0x11, 0xbe, 0x06, 0x83, 0xc1, 0x3d,
  0x44, 0x22, 0x11, 0x3e, 0x44, 0x22, 0x11, 0x3e, 0x06, 0x83, 0x41, 0xbd,
  0x44, 0x22, 0x11, 0xbe, 0x06, 0x83, 0x41, 0xbd, 0x06, 0x83, 0x41, 0xbd,
  0x06, 0x83, 0x41, 0x3d, 0x06, 0x83, 0xc1, 0xbd, 0x00, 0x00, 0x00, 0x00,
  0x06, 0x83, 0x41, 0xbd, 0x44, 0x22, 0x11, 0xbe, 0x06, 0x83, 0x41, 0xbd,
  0x00, 0x00, 0x00, 0x00, 0x06, 0x83, 0xc1, 0x3d, 0x44, 0x22, 0x11, 0xbe,
  0x06, 0x83, 0x41, 0x3d, 0x06, 0x83, 0x41, 0x3d, 0x06, 0x83, 0xc1, 0x3d,
  0x06, 0x83, 0xc1, 0x3d, 0x44, 0x22, 0x11, 0x3e, 0x06, 0x83, 0x41, 0xbd,
  0x06, 0x83, 0xc1, 0x3d, 0x44, 0x22, 0x11, 0x3e, 0x06, 0x83, 0xc1, 0xbd,
  0x00, 0x00, 0x00, 0x00, 0x44, 0x22, 0x11, 0xbe, 0x06, 0x83, 0xc1, 0x3d,
  0x06, 0x83, 0x41, 0xbd, 0x06, 0x83, 0x41, 0x3d, 0x06, 0x83, 0x41, 0xbd,
  0x44, 0x22, 0x11, 0xbe, 0x44, 0x22, 0x11, 0xbe, 0x06, 0x83, 0x41, 0xbd,
  0x44, 0x22, 0x11, 0xbe, 0x06, 0x83, 0xc1, 0xbd, 0x06, 0x83, 0x41, 0xbd,
  0x06, 0x83, 0xc1, 0x3d, 0x06, 0x83, 0xc1, 0xbd, 0x06, 0x83, 0xc1, 0x3d,
  0x06, 0x83, 0xc1, 0x3d, 0x00, 0x00, 0x00, 0x00, 0x06, 0x83, 0x41, 0xbd,
  0x06, 0x83, 0xc1, 0x3d, 0x06, 0x83, 0x41, 0x3d, 0x06, 0x83, 0xc1, 0xbd,
  0x44, 0x22, 0x11, 0x3e, 0x44, 0x22, 0x11, 0x3e, 0x44, 0x22, 0x11, 0x3e,
  0x00, 0x00, 0x00, 0x00, 0x00, 0x00, 0x00, 0x00, 0x06, 0x83, 0xc1, 0x3d,
  0x06, 0x83, 0xc1, 0xbd, 0x06, 0x83, 0x41, 0x3d, 0x06, 0x83, 0x41, 0xbd,
  0x06, 0x83, 0x41, 0xbd, 0x44, 0x22, 0x11, 0xbe, 0x06, 0x83, 0x41, 0x3d,
  0x06, 0x83, 0x41, 0xbd, 0x06, 0x83, 0x41, 0xbd, 0x06, 0x83, 0x41, 0x3d,
  0x06, 0x83, 0x41, 0x3d, 0x00, 0x00, 0x00, 0x00, 0x06, 0x83, 0x41, 0xbd,
  0x06, 0x83, 0xc1, 0x3d, 0x44, 0x22, 0x11, 0x3e, 0x00, 0x00, 0x00, 0x00,
  0x06, 0x83, 0xc1, 0x3d, 0x44, 0x22, 0x11, 0x3e, 0x44, 0x22, 0x11, 0x3e,
  0x06, 0x83, 0x41, 0xbd, 0x06, 0x83, 0xc1, 0x3d, 0x06, 0x83, 0xc1, 0x3d,
  0x00, 0x00, 0x00, 0x00, 0x44, 0x22, 0x11, 0xbe, 0x06, 0x83, 0x41, 0x3d,
  0x06, 0x83, 0xc1, 0x3d, 0x06, 0x83, 0xc1, 0x3d, 0x44, 0x22, 0x11, 0xbe,
  0x44, 0x22, 0x11, 0xbe, 0x44, 0x22, 0x11, 0x3e, 0x44, 0x22, 0x11, 0x3e,
  0x00, 0x00, 0x00, 0x00, 0x06, 0x83, 0x41, 0xbd, 0x06, 0x83, 0xc1, 0xbd,
  0x44, 0x22, 0x11, 0x3e, 0x06, 0x83, 0x41, 0xbd, 0x00, 0x00, 0x00, 0x00,
  0x00, 0x00, 0x00, 0x00, 0x00, 0x00, 0x00, 0x00, 0x00, 0x00, 0x00, 0x00,
  0x44, 0x22, 0x11, 0x3e, 0x06, 0x83, 0x41, 0xbd, 0x00, 0x00, 0x00, 0x00,
  0x06, 0x83, 0xc1, 0xbd, 0x06, 0x83, 0x41, 0x3d, 0x44, 0x22, 0x11, 0xbe,
  0x06, 0x83, 0xc1, 0xbd, 0x06, 0x83, 0x41, 0x3d, 0x00, 0x00, 0x00, 0x00,
  0x06, 0x83, 0xc1, 0x3d, 0x06, 0x83, 0xc1, 0x3d, 0x06, 0x83, 0x41, 0x3d,
  0x06, 0x83, 0x41, 0xbd, 0x06, 0x83, 0x41, 0xbd, 0x06, 0x83, 0xc1, 0xbd,
  0x06, 0x83, 0x41, 0xbd, 0x00, 0x00, 0x00, 0x00, 0x06, 0x83, 0xc1, 0x3d,
  0x06, 0x83, 0x41, 0x3d, 0x00, 0x00, 0x00, 0x00, 0x06, 0x83, 0xc1, 0xbd,
  0x06, 0x83, 0x41, 0x3d, 0x00, 0x00, 0x00, 0x00, 0x06, 0x83, 0xc1, 0xbd,
  0x06, 0x83, 0xc1, 0x3d, 0x06, 0x83, 0xc1, 0xbd, 0x06, 0x83, 0xc1, 0xbd,
  0x44, 0x22, 0x11, 0x3e, 0x44, 0x22, 0x11, 0xbe, 0x00, 0x00, 0x00, 0x00,
  0x06, 0x83, 0x41, 0xbd, 0x44, 0x22, 0x11, 0xbe, 0x06, 0x83, 0xc1, 0x3d,
  0x06, 0x83, 0x41, 0x3d, 0x06, 0x83, 0x41, 0x3d, 0x44, 0x22, 0x11, 0xbe,
  0x06, 0x83, 0x41, 0x3d, 0x00, 0x00, 0x00, 0x00, 0x06, 0x83, 0xc1, 0xbd,
  0x44, 0x22, 0x11, 0xbe, 0x06, 0x83, 0x41, 0x3d, 0x06, 0x83, 0xc1, 0xbd,
  0x06, 0x83, 0xc1, 0x3d, 0x06, 0x83, 0xc1, 0xbd, 0x44, 0x22, 0x11, 0xbe,
  0x06, 0x83, 0x41, 0x3d, 0x00, 0x00, 0x00, 0x00, 0x00, 0x00, 0x00, 0x00,
  0x06, 0x83, 0xc1, 0xbd, 0x06, 0x83, 0x41, 0x3d, 0x06, 0x83, 0x41, 0xbd,
  0x06, 0x83, 0x41, 0xbd, 0x06, 0x83, 0xc1, 0x3d, 0x06, 0x83, 0xc1, 0xbd,
  0x06, 0x83, 0xc1, 0xbd, 0x06, 0x83, 0x41, 0x3d, 0x06, 0x83, 0x41, 0xbd,
  0x00, 0x00, 0x00, 0x00, 0x00, 0x00, 0x00, 0x00, 0x06, 0x83, 0x41, 0xbd,
  0x06, 0x83, 0x41, 0xbd, 0x06, 0x83, 0x41, 0xbd, 0x06, 0x83, 0xc1, 0xbd,
  0x06, 0x83, 0x41, 0x3d, 0x06, 0x83, 0x41, 0x3d, 0x06, 0x83, 0x41, 0xbd,
  0x06, 0x83, 0xc1, 0xbd, 0x44, 0x22, 0x11, 0x3e, 0x44, 0x22, 0x11, 0x3e,
  0x06, 0x83, 0x41, 0xbd, 0x06, 0x83, 0xc1, 0xbd, 0x44, 0x22, 0x11, 0x3e,
  0x00, 0x00, 0x00, 0x00, 0x44, 0x22, 0x11, 0xbe, 0x06, 0x83, 0x41, 0x3d,
  0x06, 0x83, 0xc1, 0xbd, 0x06, 0x83, 0x41, 0x3d, 0x06, 0x83, 0xc1, 0x3d,
  0x44, 0x22, 0x11, 0xbe, 0x00, 0x00, 0x00, 0x00, 0x06, 0x83, 0xc1, 0xbd,
  0x06, 0x83, 0x41, 0x3d, 0x06, 0x83, 0x41, 0xbd, 0x44, 0x22, 0x11, 0x3e,
  0x00, 0x00, 0x00, 0x00, 0x00, 0x00, 0x00, 0x00, 0x06, 0x83, 0x41, 0x3d,
  0x06, 0x83, 0x41, 0x3d, 0x06, 0x83, 0x41, 0x3d, 0x44, 0x22, 0x11, 0xbe,
  0x06, 0x83, 0x41, 0x3d, 0x06, 0x83, 0x41, 0x3d, 0x06, 0x83, 0x41, 0xbd,
  0x06, 0x83, 0x41, 0xbd, 0x06, 0x83, 0x41, 0xbd, 0x06, 0x83, 0x41, 0xbd,
  0x00, 0x00, 0x00, 0x00, 0x06, 0x83, 0x41, 0x3d, 0x00, 0x00, 0x00, 0x00,
  0x00, 0x00, 0x00, 0x00, 0x44, 0x22, 0x11, 0xbe, 0x00, 0x00, 0x00, 0x00,
  0x06, 0x83, 0xc1, 0x3d, 0x00, 0x00, 0x00, 0x00, 0x00, 0x00, 0x00, 0x00,
  0x06, 0x83, 0x41, 0x3d, 0x06, 0x83, 0x41, 0xbd, 0x06, 0x83, 0xc1, 0xbd,
  0x06, 0x83, 0x41, 0x3d, 0x44, 0x22, 0x11, 0x3e, 0x06, 0x83, 0xc1, 0x3d,
  0x00, 0x00, 0x00, 0x00, 0x06, 0x83, 0xc1, 0x3d, 0x06, 0x83, 0x41, 0x3d,
  0x06, 0x83, 0xc1, 0x3d, 0x06, 0x83, 0xc1, 0xbd, 0x00, 0x00, 0x00, 0x00,
  0x06, 0x83, 0x41, 0xbd, 0x00, 0x00, 0x00, 0x00, 0x06, 0x83, 0x41, 0x3d,
  0x06, 0x83, 0xc1, 0x3d, 0x06, 0x83, 0xc1, 0xbd, 0x06, 0x83, 0xc1, 0xbd,
  0x06, 0x83, 0x41, 0x3d, 0x00, 0x00, 0x00, 0x00, 0x06, 0x83, 0xc1, 0xbd,
  0x00, 0x00, 0x00, 0x00, 0x00, 0x00, 0x00, 0x00, 0x00, 0x00, 0x00, 0x00,
  0x06, 0x83, 0xc1, 0x3d, 0x06, 0x83, 0x41, 0x3d, 0x00, 0x00, 0x00, 0x00,
  0x06, 0x83, 0xc1, 0xbd, 0x06, 0x83, 0x41, 0x3d, 0x44, 0x22, 0x11, 0xbe,
  0x44, 0x22, 0x11, 0xbe, 0x00, 0x00, 0x00, 0x00, 0x44, 0x22, 0x11, 0x3e,
  0x06, 0x83, 0x41, 0xbd, 0x06, 0x83, 0xc1, 0xbd, 0x06, 0x83, 0x41, 0x3d,
  0x06, 0x83, 0xc1, 0x3d, 0x06, 0x83, 0x41, 0xbd, 0x06, 0x83, 0xc1, 0xbd,
  0x44, 0x22, 0x11, 0x3e, 0x44, 0x22, 0x11, 0x3e, 0x00, 0x00, 0x00, 0x00,
  0x06, 0x83, 0x41, 0xbd, 0x06, 0x83, 0xc1, 0x3d, 0x06, 0x83, 0xc1, 0x3d,
  0x44, 0x22, 0x11, 0x3e, 0x06, 0x83, 0x41, 0x3d, 0x44, 0x22, 0x11, 0xbe,
  0x00, 0x00, 0x00, 0x00, 0x06, 0x83, 0xc1, 0x3d, 0x44, 0x22, 0x11, 0xbe,
  0x06, 0x83, 0xc1, 0xbd, 0x06, 0x83, 0xc1, 0xbd, 0x00, 0x00, 0x00, 0x00,
  0x06, 0x83, 0x41, 0xbd, 0x44, 0x22, 0x11, 0xbe, 0x00, 0x00, 0x00, 0x00,
  0x06, 0x83, 0xc1, 0x3d, 0x06, 0x83, 0x41, 0xbd, 0x06, 0x83, 0xc1, 0x3d,
  0x44, 0x22, 0x11, 0x3e, 0x06, 0x83, 0xc1, 0x3d, 0x44, 0x22, 0x11, 0x3e,
  0x00, 0x00, 0x00, 0x00, 0x06, 0x83, 0xc1, 0xbd, 0x06, 0x83, 0x41, 0x3d,
  0x06, 0x83, 0x41, 0x3d, 0x06, 0x83, 0x41, 0xbd, 0x06, 0x83, 0xc1, 0x3d,
  0x06, 0x83, 0xc1, 0x3d, 0x44, 0x22, 0x11, 0xbe, 0x06, 0x83, 0xc1, 0xbd,
  0x00, 0x00, 0x00, 0x00, 0x06, 0x83, 0x41, 0xbd, 0x06, 0x83, 0x41, 0xbd,
  0x00, 0x00, 0x00, 0x00, 0x06, 0x83, 0x41, 0xbd, 0x06, 0x83, 0x41, 0x3d,
  0x44, 0x22, 0x11, 0xbe, 0x06, 0x83, 0xc1, 0xbd, 0x44, 0x22, 0x11, 0x3e,
  0x06, 0x83, 0x41, 0xbd, 0x00, 0x00, 0x00, 0x00, 0x00, 0x00, 0x00, 0x00,
  0x06, 0x83, 0xc1, 0xbd, 0x06, 0x83, 0x41, 0xbd, 0x44, 0x22, 0x11, 0x3e,
  0x06, 0x83, 0xc1, 0xbd, 0x06, 0x83, 0xc1, 0xbd, 0x00, 0x00, 0x00, 0x00,
  0x44, 0x22, 0x11, 0xbe, 0x06, 0x83, 0xc1, 0xbd, 0x06, 0x83, 0xc1, 0x3d,
  0x06, 0x83, 0xc1, 0x3d, 0x06, 0x83, 0xc1, 0xbd, 0x44, 0x22, 0x11, 0x3e,
  0x00, 0x00, 0x00, 0x00, 0x06, 0x83, 0x41, 0xbd, 0x06, 0x83, 0x41, 0x3d,
  0x06, 0x83, 0x41, 0x3d, 0x06, 0x83, 0x41, 0x3d, 0x44, 0x22, 0x11, 0x3e,
  0x00, 0x00, 0x00, 0x00, 0x06, 0x83, 0x41, 0xbd, 0x06, 0x83, 0xc1, 0xbd,
  0x44, 0x22, 0x11, 0x3e, 0x44, 0x22, 0x11, 0x3e, 0x06, 0x83, 0x41, 0xbd,
  0x06, 0x83, 0x41, 0x3d, 0x06, 0x83, 0x41, 0xbd, 0x06, 0x83, 0x41, 0xbd,
  0x00, 0x00, 0x00, 0x00, 0x06, 0x83, 0x41, 0x3d, 0x44, 0x22, 0x11, 0xbe,
  0x44, 0x22, 0x11, 0x3e, 0x06, 0x83, 0xc1, 0xbd, 0x06, 0x83, 0x41, 0xbd,
  0x44, 0x22, 0x11, 0xbe, 0x44, 0x22, 0x11, 0xbe, 0x44, 0x22, 0x11, 0xbe,
  0x06, 0x83, 0xc1, 0xbd, 0x06, 0x83, 0x41, 0x3d, 0x44, 0x22, 0x11, 0x3e,
  0x06, 0x83, 0x41, 0x3d, 0x06, 0x83, 0x41, 0x3d, 0x06, 0x83, 0xc1, 0xbd,
  0x44, 0x22, 0x11, 0x3e, 0x00, 0x00, 0x00, 0x00, 0x06, 0x83, 0xc1, 0xbd,
  0x06, 0x83, 0x41, 0x3d, 0x06, 0x83, 0xc1, 0xbd, 0x06, 0x83, 0x41, 0xbd,
  0x06, 0x83, 0x41, 0x3d, 0x44, 0x22, 0x11, 0x3e, 0x06, 0x83, 0xc1, 0x3d,
  0x06, 0x83, 0xc1, 0xbd, 0x44, 0x22, 0x11, 0x3e, 0x06, 0x83, 0x41, 0x3d,
  0x06, 0x83, 0x41, 0xbd, 0x06, 0x83, 0xc1, 0xbd, 0x06, 0x83, 0x41, 0x3d,
  0x06, 0x83, 0x41, 0xbd, 0x06, 0x83, 0xc1, 0xbd, 0x06, 0x83, 0xc1, 0xbd,
  0x44, 0x22, 0x11, 0x3e, 0x00, 0x00, 0x00, 0x00, 0x06, 0x83, 0xc1, 0xbd,
  0x06, 0x83, 0xc1, 0xbd, 0x06, 0x83, 0xc1, 0xbd, 0x06, 0x83, 0x41, 0x3d,
  0x06, 0x83, 0xc1, 0xbd, 0x06, 0x83, 0xc1, 0x3d, 0x06, 0x83, 0x41, 0xbd,
  0x06, 0x83, 0x41, 0x3d, 0x06, 0x83, 0x41, 0xbd, 0x06, 0x83, 0x41, 0xbd,
  0x06, 0x83, 0x41, 0x3d, 0x06, 0x83, 0x41, 0x3d, 0x06, 0x83, 0x41, 0xbd,
  0x44, 0x22, 0x11, 0x3e, 0x06, 0x83, 0x41, 0x3d, 0x00, 0x00, 0x00, 0x00,
  0x44, 0x22, 0x11, 0xbe, 0x44, 0x22, 0x11, 0x3e, 0x00, 0x00, 0x00, 0x00,
  0x06, 0x83, 0x41, 0xbd, 0x44, 0x22, 0x11, 0xbe, 0x06, 0x83, 0xc1, 0xbd,
  0x06, 0x83, 0x41, 0x3d, 0x06, 0x83, 0x41, 0x3d, 0x06, 0x83, 0x41, 0x3d,
  0x06, 0x83, 0xc1, 0x3d, 0x06, 0x83, 0xc1, 0xbd, 0x44, 0x22, 0x11, 0x3e,
  0x06, 0x83, 0x41, 0xbd, 0x44, 0x22, 0x11, 0xbe, 0x44, 0x22, 0x11, 0x3e,
  0x06, 0x83, 0xc1, 0x3d, 0x06, 0x83, 0x41, 0xbd, 0x06, 0x83, 0xc1, 0x3d,
  0x06, 0x83, 0xc1, 0x3d, 0x44, 0x22, 0x11, 0x3e, 0x06, 0x83, 0x41, 0xbd,
  0x06, 0x83, 0x41, 0x3d, 0x06, 0x83, 0xc1, 0xbd, 0x00, 0x00, 0x00, 0x00,
  0x06, 0x83, 0xc1, 0xbd, 0x06, 0x83, 0x41, 0x3d, 0x00, 0x00, 0x00, 0x00,
  0x06, 0x83, 0xc1, 0x3d, 0x44, 0x22, 0x11, 0x3e, 0x06, 0x83, 0xc1, 0x3d,
  0x06, 0x83, 0xc1, 0xbd, 0x06, 0x83, 0xc1, 0xbd, 0x44, 0x22, 0x11, 0xbe,
  0x06, 0x83, 0x41, 0xbd, 0x06, 0x83, 0x41, 0x3d, 0x44, 0x22, 0x11, 0xbe,
  0x06, 0x83, 0x41, 0xbd, 0x06, 0x83, 0xc1, 0x3d, 0x06, 0x83, 0xc1, 0x3d,
  0x06, 0x83, 0x41, 0xbd, 0x44, 0x22, 0x11, 0xbe, 0x06, 0x83, 0xc1, 0x3d,
  0x00, 0x00, 0x00, 0x00, 0x06, 0x83, 0xc1, 0xbd, 0x44, 0x22, 0x11, 0xbe,
  0x06, 0x83, 0xc1, 0xbd, 0x06, 0x83, 0xc1, 0x3d, 0x44, 0x22, 0x11, 0x3e,
  0x06, 0x83, 0xc1, 0x3d, 0x06, 0x83, 0xc1, 0x3d, 0x06, 0x83, 0xc1, 0xbd,
  0x00, 0x00, 0x00, 0x00, 0x06, 0x83, 0xc1, 0x3d, 0x06, 0x83, 0xc1, 0x3d,
  0x44, 0x22, 0x11, 0x3e, 0x06, 0x83, 0xc1, 0xbd, 0x00, 0x00, 0x00, 0x00,
  0x06, 0x83, 0x41, 0x3d, 0x06, 0x83, 0xc1, 0x3d, 0x44, 0x22, 0x11, 0x3e,
  0x06, 0x83, 0xc1, 0xbd, 0x44, 0x22, 0x11, 0xbe, 0x06, 0x83, 0x41, 0xbd,
  0x06, 0x83, 0x41, 0x3d, 0x06, 0x83, 0x41, 0x3d, 0x06, 0x83, 0x41, 0xbd,
  0x06, 0x83, 0xc1, 0x3d, 0x44, 0x22, 0x11, 0x3e, 0x06, 0x83, 0x41, 0x3d,
  0x06, 0x83, 0xc1, 0xbd, 0x00, 0x00, 0x00, 0x00, 0x06, 0x83, 0xc1, 0xbd,
  0x06, 0x83, 0xc1, 0x3d, 0x06, 0x83, 0x41, 0xbd, 0x44, 0x22, 0x11, 0xbe,
  0x06, 0x83, 0x41, 0xbd, 0x00, 0x00, 0x00, 0x00, 0x06, 0x83, 0xc1, 0xbd,
  0x44, 0x22, 0x11, 0xbe, 0x06, 0x83, 0xc1, 0xbd, 0x44, 0x22, 0x11, 0xbe,
  0x44, 0x22, 0x11, 0xbe, 0x06, 0x83, 0xc1, 0x3d, 0x06, 0x83, 0x41, 0xbd,
  0x06, 0x83, 0x41, 0x3d, 0x44, 0x22, 0x11, 0xbe, 0x06, 0x83, 0xc1, 0x3d,
  0x06, 0x83, 0xc1, 0xbd, 0x06, 0x83, 0xc1, 0x3d, 0x06, 0x83, 0xc1, 0xbd,
  0x06, 0x83, 0x41, 0xbd, 0x06, 0x83, 0x41, 0x3d, 0x06, 0x83, 0xc1, 0x3d,
  0x00, 0x00, 0x00, 0x00, 0x44, 0x22, 0x11, 0x3e, 0x00, 0x00, 0x00, 0x00,
  0x44, 0x22, 0x11, 0x3e, 0x44, 0x22, 0x11, 0x3e, 0x44, 0x22, 0x11, 0xbe,
  0x44, 0x22, 0x11, 0xbe, 0x06, 0x83, 0x41, 0xbd, 0x06, 0x83, 0xc1, 0x3d,
  0x44, 0x22, 0x11, 0x3e, 0x06, 0x83, 0x41, 0xbd, 0x00, 0x00, 0x00, 0x00,
  0x06, 0x83, 0xc1, 0xbd, 0x06, 0x83, 0xc1, 0xbd, 0x06, 0x83, 0xc1, 0xbd,
  0x00, 0x00, 0x00, 0x00, 0x06, 0x83, 0xc1, 0xbd, 0x44, 0x22, 0x11, 0x3e,
  0x06, 0x83, 0xc1, 0x3d, 0x06, 0x83, 0x41, 0x3d, 0x06, 0x83, 0xc1, 0x3d,
  0x06, 0x83, 0x41, 0x3d, 0x44, 0x22, 0x11, 0xbe, 0x06, 0x83, 0x41, 0x3d,
  0x06, 0x83, 0x41, 0xbd, 0x06, 0x83, 0xc1, 0x3d, 0x06, 0x83, 0xc1, 0xbd,
  0x00, 0x00, 0x00, 0x00, 0x06, 0x83, 0xc1, 0x3d, 0x06, 0x83, 0x41, 0xbd,
  0x06, 0x83, 0xc1, 0x3d, 0x06, 0x83, 0x41, 0xbd, 0x06, 0x83, 0x41, 0xbd,
  0x06, 0x83, 0x41, 0x3d, 0x06, 0x83, 0xc1, 0x3d, 0x00, 0x00, 0x00, 0x00,
  0x44, 0x22, 0x11, 0xbe, 0x00, 0x00, 0x00, 0x00, 0x06, 0x83, 0x41, 0xbd,
  0x06, 0x83, 0x41, 0xbd, 0x44, 0x22, 0x11, 0xbe, 0x06, 0x83, 0xc1, 0x3d,
  0x06, 0x83, 0x41, 0x3d, 0x06, 0x83, 0xc1, 0x3d, 0x00, 0x00, 0x00, 0x00,
  0x06, 0x83, 0xc1, 0x3d, 0x06, 0x83, 0xc1, 0x3d, 0x06, 0x83, 0x41, 0x3d,
  0x06, 0x83, 0xc1, 0x3d, 0x44, 0x22, 0x11, 0x3e, 0x06, 0x83, 0xc1, 0xbd,
  0x06, 0x83, 0x41, 0x3d, 0x06, 0x83, 0xc1, 0x3d, 0x44, 0x22, 0x11, 0xbe,
  0x44, 0x22, 0x11, 0x3e, 0x44, 0x22, 0x11, 0xbe, 0x44, 0x22, 0x11, 0xbe,
  0x06, 0x83, 0xc1, 0xbd, 0x44, 0x22, 0x11, 0x3e, 0x06, 0x83, 0x41, 0x3d,
  0x06, 0x83, 0xc1, 0xbd, 0x44, 0x22, 0x11, 0x3e, 0x06, 0x83, 0x41, 0xbd,
  0x44, 0x22, 0x11, 0xbe, 0x06, 0x83, 0x41, 0x3d, 0x06, 0x83, 0x41, 0xbd,
  0x00, 0x00, 0x00, 0x00, 0x06, 0x83, 0x41, 0x3d, 0x06, 0x83, 0xc1, 0x3d,
  0x44, 0x22, 0x11, 0xbe, 0x06, 0x83, 0xc1, 0xbd, 0x06, 0x83, 0xc1, 0xbd,
  0x06, 0x83, 0xc1, 0xbd, 0x44, 0x22, 0x11, 0x3e, 0x00, 0x00, 0x00, 0x00,
  0x00, 0x00, 0x00, 0x00, 0x44, 0x22, 0x11, 0xbe, 0x06, 0x83, 0xc1, 0xbd,
  0x06, 0x83, 0x41, 0x3d, 0x06, 0x83, 0xc1, 0xbd, 0x44, 0x22, 0x11, 0xbe,
  0x00, 0x00, 0x00, 0x00, 0x06, 0x83, 0xc1, 0xbd, 0x00, 0x00, 0x00, 0x00,
  0x06, 0x83, 0x41, 0x3d, 0x44, 0x22, 0x11, 0xbe, 0x00, 0x00, 0x00, 0x00,
  0x06, 0x83, 0xc1, 0x3d, 0x06, 0x83, 0x41, 0xbd, 0x44, 0x22, 0x11, 0x3e,
  0x06, 0x83, 0xc1, 0x3d, 0x44, 0x22, 0x11, 0x3e, 0x06, 0x83, 0x41, 0x3d,
  0x00, 0x00, 0x00, 0x00, 0x00, 0x00, 0x00, 0x00, 0x06, 0x83, 0x41, 0xbd,
  0x06, 0x83, 0xc1, 0x3d, 0x06, 0x83, 0x41, 0xbd, 0x06, 0x83, 0xc1, 0xbd,
  0x44, 0x22, 0x11, 0xbe, 0x06, 0x83, 0xc1, 0xbd, 0x00, 0x00, 0x00, 0x00,
  0x06, 0x83, 0xc1, 0x3d, 0x06, 0x83, 0x41, 0xbd, 0x00, 0x00, 0x00, 0x00,
  0x06, 0x83, 0xc1, 0x3d, 0x06, 0x83, 0x41, 0x3d, 0x06, 0x83, 0xc1, 0x3d,
  0x00, 0x00, 0x00, 0x00, 0x00, 0x00, 0x00, 0x00, 0x06, 0x83, 0x41, 0xbd,
  0x06, 0x83, 0xc1, 0x3d, 0x06, 0x83, 0xc1, 0xbd, 0x44, 0x22, 0x11, 0x3e,
  0x00, 0x00, 0x00, 0x00, 0x00, 0x00, 0x00, 0x00, 0x06, 0x83, 0xc1, 0xbd,
  0x44, 0x22, 0x11, 0x3e, 0x06, 0x83, 0x41, 0xbd, 0x06, 0x83, 0xc1, 0xbd,
  0x06, 0x83, 0xc1, 0xbd, 0x06, 0x83, 0xc1, 0xbd, 0x44, 0x22, 0x11, 0xbe,
  0x44, 0x22, 0x11, 0xbe, 0x06, 0x83, 0x41, 0xbd, 0x44, 0x22, 0x11, 0x3e,
  0x06, 0x83, 0x41, 0xbd, 0x06, 0x83, 0x41, 0xbd, 0x06, 0x83, 0x41, 0x3d,
  0x06, 0x83, 0xc1, 0xbd, 0x06, 0x83, 0x41, 0xbd, 0x06, 0x83, 0xc1, 0xbd,
  0x06, 0x83, 0x41, 0x3d, 0x06, 0x83, 0xc1, 0x3d, 0x06, 0x83, 0x41, 0xbd,
  0x44, 0x22, 0x11, 0x3e, 0x06, 0x83, 0x41, 0xbd, 0x00, 0x00, 0x00, 0x00,
  0x44, 0x22, 0x11, 0xbe, 0x00, 0x00, 0x00, 0x00, 0x06, 0x83, 0xc1, 0xbd,
  0x06, 0x83, 0xc1, 0x3d, 0x06, 0x83, 0x41, 0x3d, 0x06, 0x83, 0xc1, 0xbd,
  0x44, 0x22, 0x11, 0x3e, 0x44, 0x22, 0x11, 0x3e, 0x44, 0x22, 0x11, 0x3e,
  0x44, 0x22, 0x11, 0xbe, 0x44, 0x22, 0x11, 0xbe, 0x06, 0x83, 0x41, 0xbd,
  0x06, 0x83, 0xc1, 0xbd, 0x44, 0x22, 0x11, 0x3e, 0x44, 0x22, 0x11, 0xbe,
  0x06, 0x83, 0xc1, 0x3d, 0x06, 0x83, 0x41, 0x3d, 0x06, 0x83, 0x41, 0xbd,
  0x44, 0x22, 0x11, 0x3e, 0x44, 0x22, 0x11, 0x3e, 0x06, 0x83, 0xc1, 0xbd,
  0x06, 0x83, 0xc1, 0x3d, 0x00, 0x00, 0x00, 0x00, 0x44, 0x22, 0x11, 0x3e,
  0x06, 0x83, 0xc1, 0xbd, 0x44, 0x22, 0x11, 0x3e, 0x06, 0x83, 0xc1, 0x3d,
  0x06, 0x83, 0xc1, 0xbd, 0x44, 0x22, 0x11, 0xbe, 0x06, 0x83, 0xc1, 0x3d,
  0x06, 0x83, 0xc1, 0x3d, 0x44, 0x22, 0x11, 0xbe, 0x44, 0x22, 0x11, 0xbe,
  0x00, 0x00, 0x00, 0x00, 0x06, 0x83, 0xc1, 0xbd, 0x44, 0x22, 0x11, 0xbe,
  0x06, 0x83, 0xc1, 0x3d, 0x06, 0x83, 0x41, 0x3d, 0x06, 0x83, 0xc1, 0x3d,
  0x00, 0x00, 0x00, 0x00, 0x44, 0x22, 0x11, 0x3e, 0x00, 0x00, 0x00, 0x00,
  0x06, 0x83, 0xc1, 0x3d, 0x44, 0x22, 0x11, 0x3e, 0x00, 0x00, 0x00, 0x00,
  0x06, 0x83, 0xc1, 0x3d, 0x44, 0x22, 0x11, 0xbe, 0x06, 0x83, 0x41, 0x3d,
  0x06, 0x83, 0x41, 0x3d, 0x06, 0x83, 0xc1, 0xbd, 0x06, 0x83, 0xc1, 0xbd,
  0x06, 0x83, 0x41, 0x3d, 0x06, 0x83, 0xc1, 0xbd, 0x06, 0x83, 0xc1, 0x3d,
  0x06, 0x83, 0xc1, 0xbd, 0x06, 0x83, 0xc1, 0xbd, 0x44, 0x22, 0x11, 0xbe,
  0x06, 0x83, 0x41, 0xbd, 0x06, 0x83, 0x41, 0x3d, 0x06, 0x83, 0x41, 0xbd,
  0x06, 0x83, 0xc1, 0xbd, 0x06, 0x83, 0xc1, 0xbd, 0x06, 0x83, 0xc1, 0x3d,
  0x06, 0x83, 0xc1, 0xbd, 0x00, 0x00, 0x00, 0x00, 0x06, 0x83, 0xc1, 0x3d,
  0x00, 0x00, 0x00, 0x00, 0x06, 0x83, 0xc1, 0x3d, 0x06, 0x83, 0xc1, 0xbd,
  0x06, 0x83, 0x41, 0x3d, 0x06, 0x83, 0xc1, 0xbd, 0x06, 0x83, 0xc1, 0xbd,
  0x06, 0x83, 0x41, 0x3d, 0x06, 0x83, 0x41, 0x3d, 0x06, 0x83, 0x41, 0x3d,
  0x44, 0x22, 0x11, 0xbe, 0x06, 0x83, 0x41, 0xbd, 0x44, 0x22, 0x11, 0xbe,
  0x44, 0x22, 0x11, 0x3e, 0x06, 0x83, 0xc1, 0x3d, 0x44, 0x22, 0x11, 0xbe,
  0x06, 0x83, 0xc1, 0xbd, 0x06, 0x83, 0xc1, 0x3d, 0x06, 0x83, 0xc1, 0x3d,
  0x06, 0x83, 0x41, 0x3d, 0x00, 0x00, 0x00, 0x00, 0x06, 0x83, 0xc1, 0x3d,
  0x44, 0x22, 0x11, 0xbe, 0x06, 0x83, 0xc1, 0x3d, 0x44, 0x22, 0x11, 0x3e,
  0x00, 0x00, 0x00, 0x00, 0x06, 0x83, 0x41, 0x3d, 0x44, 0x22, 0x11, 0xbe,
  0x06, 0x83, 0xc1, 0xbd, 0x44, 0x22, 0x11, 0xbe, 0x00, 0x00, 0x00, 0x00,
  0x06, 0x83, 0xc1, 0xbd, 0x06, 0x83, 0xc1, 0x3d, 0x06, 0x83, 0x41, 0xbd,
  0x00, 0x00, 0x00, 0x00, 0x06, 0x83, 0xc1, 0xbd, 0x44, 0x22, 0x11, 0x3e,
  0x06, 0x83, 0x41, 0x3d, 0x06, 0x83, 0x41, 0xbd, 0x06, 0x83, 0x41, 0xbd,
  0x06, 0x83, 0xc1, 0x3d, 0x44, 0x22, 0x11, 0x3e, 0x00, 0x00, 0x00, 0x00,
  0x00, 0x00, 0x00, 0x00, 0x00, 0x00, 0x00, 0x00, 0x06, 0x83, 0x41, 0xbd,
  0x06, 0x83, 0xc1, 0xbd, 0x44, 0x22, 0x11, 0x3e, 0x06, 0x83, 0xc1, 0x3d,
  0x44, 0x22, 0x11, 0xbe, 0x06, 0x83, 0xc1, 0xbd, 0x06, 0x83, 0xc1, 0x3d,
  0x44, 0x22, 0x11, 0x3e, 0x06, 0x83, 0x41, 0xbd, 0x00, 0x00, 0x00, 0x00,
  0x06, 0x83, 0xc1, 0x3d, 0x44, 0x22, 0x11, 0x3e, 0x06, 0x83, 0xc1, 0xbd,
  0x06, 0x83, 0xc1, 0xbd, 0x06, 0x83, 0xc1, 0xbd, 0x06, 0x83, 0x41, 0x3d,
  0x06, 0x83, 0xc1, 0xbd, 0x00, 0x00, 0x00, 0x00, 0x00, 0x00, 0x00, 0x00,
  0x06, 0x83, 0x41, 0x3d, 0x00, 0x00, 0x00, 0x00, 0x06, 0x83, 0xc1, 0xbd,
  0x44, 0x22, 0x11, 0xbe, 0x06, 0x83, 0xc1, 0xbd, 0x06, 0x83, 0xc1, 0x3d,
  0x44, 0x22, 0x11, 0xbe, 0x00, 0x00, 0x00, 0x00, 0x00, 0x00, 0x00, 0x00,
  0x00, 0x00, 0x00, 0x00, 0x06, 0x83, 0x41, 0x3d, 0x06, 0x83, 0x41, 0xbd,
  0x00, 0x00, 0x00, 0x00, 0x06, 0x83, 0x41, 0x3d, 0x06, 0x83, 0x41, 0xbd,
  0x06, 0x83, 0xc1, 0xbd, 0x44, 0x22, 0x11, 0xbe, 0x44, 0x22, 0x11, 0xbe,
  0x44, 0x22, 0x11, 0x3e, 0x06, 0x83, 0x41, 0x3d, 0x06, 0x83, 0xc1, 0x3d,
  0x06, 0x83, 0x41, 0x3d, 0x00, 0x00, 0x00, 0x00, 0x00, 0x00, 0x00, 0x00,
  0x00, 0x00, 0x00, 0x00, 0x06, 0x83, 0x41, 0xbd, 0x06, 0x83, 0xc1, 0xbd,
  0x06, 0x83, 0x41, 0xbd, 0x06, 0x83, 0xc1, 0xbd, 0x00, 0x00, 0x00, 0x00,
  0x06, 0x83, 0x41, 0xbd, 0x00, 0x00, 0x00, 0x00, 0x06, 0x83, 0x41, 0xbd,
  0x06, 0x83, 0xc1, 0xbd, 0x00, 0x00, 0x00, 0x00, 0x06, 0x83, 0xc1, 0xbd,
  0x06, 0x83, 0xc1, 0xbd, 0x00, 0x00, 0x00, 0x00, 0x44, 0x22, 0x11, 0xbe,
  0x00, 0x00, 0x00, 0x00, 0x06, 0x83, 0xc1, 0x3d, 0x44, 0x22, 0x11, 0xbe,
  0x06, 0x83, 0xc1, 0x3d, 0x44, 0x22, 0x11, 0xbe, 0x44, 0x22, 0x11, 0xbe,
  0x06, 0x83, 0x41, 0x3d, 0x06, 0x83, 0xc1, 0x3d, 0x06, 0x83, 0x41, 0x3d,
  0x06, 0x83, 0x41, 0xbd, 0x06, 0x83, 0x41, 0xbd, 0x06, 0x83, 0x41, 0xbd,
  0x06, 0x83, 0xc1, 0xbd, 0x44, 0x22, 0x11, 0x3e, 0x06, 0x83, 0xc1, 0xbd,
  0x44, 0x22, 0x11, 0x3e, 0x06, 0x83, 0xc1, 0x3d, 0x44, 0x22, 0x11, 0xbe,
  0x44, 0x22, 0x11, 0x3e, 0x06, 0x83, 0xc1, 0x3d, 0x44, 0x22, 0x11, 0xbe,
  0x44, 0x22, 0x11, 0x3e, 0x00, 0x00, 0x00, 0x00, 0x06, 0x83, 0x41, 0xbd,
  0x06, 0x83, 0xc1, 0x3d, 0x06, 0x83, 0x41, 0x3d, 0x44, 0x22, 0x11, 0x3e,
  0x06, 0x83, 0xc1, 0x3d, 0x44, 0x22, 0x11, 0x3e, 0x06, 0x83, 0xc1, 0xbd,
  0x06, 0x83, 0xc1, 0x3d, 0x06, 0x83, 0x41, 0x3d, 0x44, 0x22, 0x11, 0x3e,
  0x44, 0x22, 0x11, 0xbe, 0x06, 0x83, 0x41, 0x3d, 0x44, 0x22, 0x11, 0xbe,
  0x06, 0x83, 0x41, 0x3d, 0x06, 0x83, 0x41, 0xbd, 0x44, 0x22, 0x11, 0xbe,
  0x06, 0x83, 0x41, 0xbd, 0x44, 0x22, 0x11, 0x3e, 0x06, 0x83, 0x41, 0xbd,
  0x06, 0x83, 0xc1, 0xbd, 0x06, 0x83, 0xc1, 0xbd, 0x44, 0x22, 0x11, 0xbe,
  0x00, 0x00, 0x00, 0x00, 0x06, 0x83, 0xc1, 0x3d, 0x00, 0x00, 0x00, 0x00,
  0x06, 0x83, 0xc1, 0xbd, 0x44, 0x22, 0x11, 0xbe, 0x06, 0x83, 0x41, 0xbd,
  0x06, 0x83, 0xc1, 0xbd, 0x00, 0x00, 0x00, 0x00, 0x00, 0x00, 0x00, 0x00,
  0x44, 0x22, 0x11, 0x3e, 0x00, 0x00, 0x00, 0x00, 0x06, 0x83, 0xc1, 0xbd,
  0x06, 0x83, 0x41, 0xbd, 0x06, 0x83, 0x41, 0xbd, 0x06, 0x83, 0xc1, 0xbd,
  0x06, 0x83, 0xc1, 0x3d, 0x06, 0x83, 0xc1, 0x3d, 0x06, 0x83, 0x41, 0x3d,
  0x44, 0x22, 0x11, 0x3e, 0x06, 0x83, 0xc1, 0xbd, 0x00, 0x00, 0x00, 0x00,
  0x06, 0x83, 0xc1, 0x3d, 0x06, 0x83, 0xc1, 0xbd, 0x00, 0x00, 0x00, 0x00,
  0x44, 0x22, 0x11, 0xbe, 0x06, 0x83, 0xc1, 0xbd, 0x06, 0x83, 0x41, 0x3d,
  0x44, 0x22, 0x11, 0xbe, 0x44, 0x22, 0x11, 0x3e, 0x00, 0x00, 0x00, 0x00,
  0x06, 0x83, 0x41, 0x3d, 0x06, 0x83, 0xc1, 0x3d, 0x44, 0x22, 0x11, 0x3e,
  0x06, 0x83, 0x41, 0x3d, 0x00, 0x00, 0x00, 0x00, 0x06, 0x83, 0x41, 0x3d,
  0x00, 0x00, 0x00, 0x00, 0x00, 0x00, 0x00, 0x00, 0x00, 0x00, 0x00, 0x00,
  0x06, 0x83, 0xc1, 0x3d, 0x06, 0x83, 0x41, 0x3d, 0x44, 0x22, 0x11, 0xbe,
  0x06, 0x83, 0x41, 0x3d, 0x06, 0x83, 0x41, 0x3d, 0x44, 0x22, 0x11, 0xbe,
  0x06, 0x83, 0xc1, 0xbd, 0x06, 0x83, 0xc1, 0xbd, 0x00, 0x00, 0x00, 0x00,
  0x00, 0x00, 0x00, 0x00, 0x06, 0x83, 0xc1, 0x3d, 0x00, 0x00, 0x00, 0x00,
  0x06, 0x83, 0x41, 0x3d, 0x06, 0x83, 0x41, 0xbd, 0x06, 0x83, 0x41, 0xbd,
  0x44, 0x22, 0x11, 0xbe, 0x06, 0x83, 0x41, 0x3d, 0x06, 0x83, 0x41, 0xbd,
  0x00, 0x00, 0x00, 0x00, 0x06, 0x83, 0x41, 0xbd, 0x44, 0x22, 0x11, 0xbe,
  0x00, 0x00, 0x00, 0x00, 0x44, 0x22, 0x11, 0x3e, 0x06, 0x83, 0xc1, 0x3d,
  0x06, 0x83, 0xc1, 0x3d, 0x06, 0x83, 0xc1, 0xbd, 0x44, 0x22, 0x11, 0x3e,
  0x00, 0x00, 0x00, 0x00, 0x00, 0x00, 0x00, 0x00, 0x06, 0x83, 0xc1, 0x3d,
  0x06, 0x83, 0x41, 0xbd, 0x00, 0x00, 0x00, 0x00, 0x44, 0x22, 0x11, 0x3e,
  0x06, 0x83, 0xc1, 0x3d, 0x44, 0x22, 0x11, 0x3e, 0x06, 0x83, 0x41, 0x3d,
  0x06, 0x83, 0xc1, 0xbd, 0x06, 0x83, 0xc1, 0x3d, 0x44, 0x22, 0x11, 0xbe,
  0x44, 0x22, 0x11, 0xbe, 0x06, 0x83, 0x41, 0x3d, 0x06, 0x83, 0x41, 0xbd,
  0x06, 0x83, 0xc1, 0x3d, 0x44, 0x22, 0x11, 0xbe, 0x06, 0x83, 0xc1, 0xbd,
  0x06, 0x83, 0xc1, 0xbd, 0x06, 0x83, 0x41, 0xbd, 0x06, 0x83, 0x41, 0xbd,
  0x06, 0x83, 0x41, 0x3d, 0x44, 0x22, 0x11, 0xbe, 0x06, 0x83, 0x41, 0x3d,
  0x06, 0x83, 0x41, 0xbd, 0x06, 0x83, 0xc1, 0xbd, 0x44, 0x22, 0x11, 0x3e,
  0x06, 0x83, 0xc1, 0x3d, 0x06, 0x83, 0xc1, 0x3d, 0x06, 0x83, 0xc1, 0x3d,
  0x44, 0x22, 0x11, 0xbe, 0x44, 0x22, 0x11, 0xbe, 0x44, 0x22, 0x11, 0xbe,
  0x06, 0x83, 0x41, 0x3d, 0x00, 0x00, 0x00, 0x00, 0x44, 0x22, 0x11, 0x3e,
  0x06, 0x83, 0x41, 0xbd, 0x06, 0x83, 0x41, 0x3d, 0x06, 0x83, 0xc1, 0x3d,
  0x44, 0x22, 0x11, 0x3e, 0x44, 0x22, 0x11, 0xbe, 0x06, 0x83, 0xc1, 0x3d,
  0x06, 0x83, 0xc1, 0xbd, 0x44, 0x22, 0x11, 0x3e, 0x44, 0x22, 0x11, 0xbe,
  0x00, 0x00, 0x00, 0x00, 0x44, 0x22, 0x11, 0xbe, 0x44, 0x22, 0x11, 0x3e,
  0x06, 0x83, 0xc1, 0x3d, 0x06, 0x83, 0xc1, 0xbd, 0x06, 0x83, 0x41, 0xbd,
  0x44, 0x22, 0x11, 0xbe, 0x06, 0x83, 0xc1, 0x3d, 0x06, 0x83, 0xc1, 0x3d,
  0x06, 0x83, 0xc1, 0xbd, 0x06, 0x83, 0xc1, 0xbd, 0x06, 0x83, 0x41, 0x3d,
  0x06, 0x83, 0x41, 0xbd, 0x06, 0x83, 0x41, 0x3d, 0x06, 0x83, 0xc1, 0x3d,
  0x00, 0x00, 0x00, 0x00, 0x06, 0x83, 0xc1, 0xbd, 0x06, 0x83, 0x41, 0x3d,
  0x06, 0x83, 0xc1, 0x3d, 0x06, 0x83, 0xc1, 0x3d, 0x06, 0x83, 0x41, 0xbd,
  0x44, 0x22, 0x11, 0x3e, 0x44, 0x22, 0x11, 0xbe, 0x44, 0x22, 0x11, 0x3e,
  0x06, 0x83, 0xc1, 0xbd, 0x06, 0x83, 0xc1, 0x3d, 0x06, 0x83, 0x41, 0x3d,
  0x06, 0x83, 0x41, 0x3d, 0x06, 0x83, 0x41, 0x3d, 0x44, 0x22, 0x11, 0x3e,
  0x06, 0x83, 0x41, 0xbd, 0x00, 0x00, 0x00, 0x00, 0x00, 0x00, 0x00, 0x00,
  0x06, 0x83, 0x41, 0xbd, 0x00, 0x00, 0x00, 0x00, 0x06, 0x83, 0xc1, 0x3d,
  0x44, 0x22, 0x11, 0xbe, 0x44, 0x22, 0x11, 0x3e, 0x06, 0x83, 0xc1, 0xbd,
  0x44, 0x22, 0x11, 0xbe, 0x44, 0x22, 0x11, 0xbe, 0x00, 0x00, 0x00, 0x00,
  0x06, 0x83, 0xc1, 0x3d, 0x44, 0x22, 0x11, 0xbe, 0x06, 0x83, 0xc1, 0xbd,
  0x44, 0x22, 0x11, 0xbe, 0x06, 0x83, 0xc1, 0x3d, 0x06, 0x83, 0xc1, 0xbd,
  0x06, 0x83, 0x41, 0x3d, 0x06, 0x83, 0x41, 0xbd, 0x06, 0x83, 0x41, 0x3d,
  0x44, 0x22, 0x11, 0xbe, 0x06, 0x83, 0x41, 0xbd, 0x06, 0x83, 0xc1, 0x3d,
  0x06, 0x83, 0x41, 0x3d, 0x00, 0x00, 0x00, 0x00, 0x06, 0x83, 0xc1, 0xbd,
  0x00, 0x00, 0x00, 0x00, 0x44, 0x22, 0x11, 0x3e, 0x00, 0x00, 0x00, 0x00,
  0x06, 0x83, 0x41, 0xbd, 0x06, 0x83, 0x41, 0x3d, 0x06, 0x83, 0xc1, 0x3d,
  0x06, 0x83, 0x41, 0xbd, 0x06, 0x83, 0x41, 0xbd, 0x00, 0x00, 0x00, 0x00,
  0x06, 0x83, 0x41, 0xbd, 0x06, 0x83, 0xc1, 0xbd, 0x00, 0x00, 0x00, 0x00,
  0x06, 0x83, 0xc1, 0xbd, 0x06, 0x83, 0xc1, 0x3d, 0x44, 0x22, 0x11, 0x3e,
  0x44, 0x22, 0x11, 0xbe, 0x00, 0x00, 0x00, 0x00, 0x06, 0x83, 0xc1, 0xbd,
  0x06, 0x83, 0xc1, 0x3d, 0x44, 0x22, 0x11, 0xbe, 0x06, 0x83, 0x41, 0xbd,
  0x06, 0x83, 0xc1, 0xbd, 0x44, 0x22, 0x11, 0xbe, 0x06, 0x83, 0xc1, 0xbd,
  0x06, 0x83, 0xc1, 0xbd, 0x06, 0x83, 0xc1, 0x3d, 0x06, 0x83, 0xc1, 0x3d,
  0x06, 0x83, 0xc1, 0x3d, 0x06, 0x83, 0xc1, 0x3d, 0x44, 0x22, 0x11, 0x3e,
  0x44, 0x22, 0x11, 0x3e, 0x44, 0x22, 0x11, 0xbe, 0x06, 0x83, 0xc1, 0x3d,
  0x44, 0x22, 0x11, 0xbe, 0x06, 0x83, 0xc1, 0xbd, 0x06, 0x83, 0x41, 0x3d,
  0x06, 0x83, 0x41, 0x3d, 0x06, 0x83, 0xc1, 0xbd, 0x00, 0x00, 0x00, 0x00,
  0x06, 0x83, 0xc1, 0x3d, 0x06, 0x83, 0x41, 0x3d, 0x06, 0x83, 0x41, 0xbd,
  0x06, 0x83, 0x41, 0x3d, 0x06, 0x83, 0xc1, 0x3d, 0x06, 0x83, 0x41, 0x3d,
  0x06, 0x83, 0x41, 0x3d, 0x44, 0x22, 0x11, 0xbe, 0x06, 0x83, 0x41, 0x3d,
  0x00, 0x00, 0x00, 0x00, 0x44, 0x22, 0x11, 0x3e, 0x06, 0x83, 0xc1, 0xbd,
  0x06, 0x83, 0xc1, 0xbd, 0x06, 0x83, 0xc1, 0x3d, 0x06, 0x83, 0x41, 0xbd,
  0x44, 0x22, 0x11, 0xbe, 0x06, 0x83, 0x41, 0xbd, 0x06, 0x83, 0xc1, 0xbd,
  0x06, 0x83, 0x41, 0x3d, 0x44, 0x22, 0x11, 0xbe, 0x06, 0x83, 0xc1, 0x3d,
  0x00, 0x00, 0x00, 0x00, 0x06, 0x83, 0xc1, 0x3d, 0x00, 0x00, 0x00, 0x00,
  0x06, 0x83, 0xc1, 0x3d, 0x06, 0x83, 0x41, 0x3d, 0x00, 0x00, 0x00, 0x00,
  0x44, 0x22, 0x11, 0x3e, 0x06, 0x83, 0xc1, 0x3d, 0x06, 0x83, 0xc1, 0xbd,
  0x06, 0x83, 0xc1, 0xbd, 0x44, 0x22, 0x11, 0x3e, 0x44, 0x22, 0x11, 0xbe,
  0x06, 0x83, 0xc1, 0x3d, 0x44, 0x22, 0x11, 0x3e, 0x06, 0x83, 0x41, 0xbd,
  0x44, 0x22, 0x11, 0x3e, 0x06, 0x83, 0x41, 0xbd, 0x00, 0x00, 0x00, 0x00,
  0x06, 0x83, 0x41, 0xbd, 0x00, 0x00, 0x00, 0x00, 0x06, 0x83, 0x41, 0x3d,
  0x44, 0x22, 0x11, 0x3e, 0x44, 0x22, 0x11, 0xbe, 0x06, 0x83, 0xc1, 0x3d,
  0x00, 0x00, 0x00, 0x00, 0x00, 0x00, 0x00, 0x00, 0x06, 0x83, 0xc1, 0xbd,
  0x00, 0x00, 0x00, 0x00, 0x06, 0x83, 0x41, 0xbd, 0x00, 0x00, 0x00, 0x00,
  0x06, 0x83, 0xc1, 0xbd, 0x44, 0x22, 0x11, 0xbe, 0x00, 0x00, 0x00, 0x00,
  0x06, 0x83, 0x41, 0x3d, 0x06, 0x83, 0x41, 0x3d, 0x44, 0x22, 0x11, 0xbe,
  0x00, 0x00, 0x00, 0x00, 0x06, 0x83, 0x41, 0x3d, 0x44, 0x22, 0x11, 0x3e,
  0x06, 0x83, 0x41, 0x3d, 0x44, 0x22, 0x11, 0xbe, 0x00, 0x00, 0x00, 0x00,
  0x06, 0x83, 0xc1, 0xbd, 0x06, 0x83, 0x41, 0x3d, 0x06, 0x83, 0x41, 0xbd,
  0x06, 0x83, 0x41, 0x3d, 0x06, 0x83, 0xc1, 0x3d, 0x06, 0x83, 0x41, 0xbd,
  0x06, 0x83, 0xc1, 0x3d, 0x00, 0x00, 0x00, 0x00, 0x06, 0x83, 0xc1, 0xbd,
  0x06, 0x83, 0xc1, 0x3d, 0x44, 0x22, 0x11, 0xbe, 0x00, 0x00, 0x00, 0x00,
  0x06, 0x83, 0xc1, 0xbd, 0x06, 0x83, 0x41, 0x3d, 0x06, 0x83, 0xc1, 0x3d,
  0x06, 0x83, 0x41, 0xbd, 0x06, 0x83, 0xc1, 0xbd, 0x06, 0x83, 0xc1, 0xbd,
  0x00, 0x00, 0x00, 0x00, 0x00, 0x00, 0x00, 0x00, 0x06, 0x83, 0xc1, 0xbd,
  0x06, 0x83, 0x41, 0x3d, 0x06, 0x83, 0x41, 0x3d, 0x00, 0x00, 0x00, 0x00,
  0x06, 0x83, 0xc1, 0x3d, 0x44, 0x22, 0x11, 0x3e, 0x06, 0x83, 0xc1, 0xbd,
  0x06, 0x83, 0x41, 0x3d, 0x06, 0x83, 0x41, 0xbd, 0x06, 0x83, 0xc1, 0x3d,
  0x06, 0x83, 0x41, 0x3d, 0x06, 0x83, 0x41, 0x3d, 0x00, 0x00, 0x00, 0x00,
  0x06, 0x83, 0x41, 0xbd, 0x00, 0x00, 0x00, 0x00, 0x44, 0x22, 0x11, 0x3e,
  0x06, 0x83, 0x41, 0xbd, 0x06, 0x83, 0x41, 0x3d, 0x00, 0x00, 0x00, 0x00,
  0x06, 0x83, 0x41, 0xbd, 0x44, 0x22, 0x11, 0x3e, 0x44, 0x22, 0x11, 0x3e,
  0x06, 0x83, 0xc1, 0xbd, 0x06, 0x83, 0x41, 0xbd, 0x06, 0x83, 0x41, 0xbd,
  0x06, 0x83, 0xc1, 0xbd, 0x44, 0x22, 0x11, 0x3e, 0x44, 0x22, 0x11, 0xbe,
  0x06, 0x83, 0xc1, 0xbd, 0x06, 0x83, 0x41, 0x3d, 0x06, 0x83, 0x41, 0xbd,
  0x44, 0x22, 0x11, 0xbe, 0x06, 0x83, 0xc1, 0x3d, 0x00, 0x00, 0x00, 0x00,
  0x44, 0x22, 0x11, 0x3e, 0x44, 0x22, 0x11, 0x3e, 0x06, 0x83, 0xc1, 0x3d,
  0x06, 0x83, 0xc1, 0xbd, 0x00, 0x00, 0x00, 0x00, 0x44, 0x22, 0x11, 0xbe,
  0x44, 0x22, 0x11, 0x3e, 0x00, 0x00, 0x00, 0x00, 0x06, 0x83, 0x41, 0xbd,
  0x06, 0x83, 0x41, 0xbd, 0x06, 0x83, 0xc1, 0x3d, 0x06, 0x83, 0x41, 0x3d,
  0x44, 0x22, 0x11, 0xbe, 0x06, 0x83, 0x41, 0xbd, 0x44, 0x22, 0x11, 0x3e,
  0x44, 0x22, 0x11, 0xbe, 0x06, 0x83, 0x41, 0xbd, 0x00, 0x00, 0x00, 0x00,
  0x06, 0x83, 0xc1, 0xbd, 0x06, 0x83, 0xc1, 0xbd, 0x06, 0x83, 0xc1, 0x3d,
  0x06, 0x83, 0xc1, 0x3d, 0x44, 0x22, 0x11, 0x3e, 0x06, 0x83, 0xc1, 0x3d,
  0x06, 0x83, 0x41, 0x3d, 0x00, 0x00, 0x00, 0x00, 0x06, 0x83, 0xc1, 0xbd,
  0x06, 0x83, 0x41, 0x3d, 0x00, 0x00, 0x00, 0x00, 0x06, 0x83, 0x41, 0xbd,
  0x44, 0x22, 0x11, 0x3e, 0x06, 0x83, 0xc1, 0xbd, 0x06, 0x83, 0x41, 0x3d,
  0x06, 0x83, 0xc1, 0xbd, 0x06, 0x83, 0xc1, 0xbd, 0x00, 0x00, 0x00, 0x00,
  0x06, 0x83, 0xc1, 0xbd, 0x44, 0x22, 0x11, 0xbe, 0x44, 0x22, 0x11, 0x3e,
  0x06, 0x83, 0x41, 0x3d, 0x06, 0x83, 0xc1, 0x3d, 0x44, 0x22, 0x11, 0x3e,
  0x00, 0x00, 0x00, 0x00, 0x06, 0x83, 0x41, 0x3d, 0x00, 0x00, 0x00, 0x00,
  0x06, 0x83, 0xc1, 0xbd, 0x06, 0x83, 0xc1, 0x3d, 0x06, 0x83, 0x41, 0x3d,
  0x00, 0x00, 0x00, 0x00, 0x44, 0x22, 0x11, 0x3e, 0x44, 0x22, 0x11, 0x3e,
  0x06, 0x83, 0x41, 0xbd, 0x06, 0x83, 0xc1, 0xbd, 0x00, 0x00, 0x00, 0x00,
  0x44, 0x22, 0x11, 0xbe, 0x44, 0x22, 0x11, 0x3e, 0x00, 0x00, 0x00, 0x00,
  0x06, 0x83, 0xc1, 0x3d, 0x06, 0x83, 0xc1, 0x3d, 0x06, 0x83, 0x41, 0xbd,
  0x06, 0x83, 0xc1, 0x3d, 0x44, 0x22, 0x11, 0xbe, 0x44, 0x22, 0x11, 0x3e,
  0x06, 0x83, 0x41, 0x3d, 0x06, 0x83, 0xc1, 0x3d, 0x06, 0x83, 0x41, 0xbd,
  0x06, 0x83, 0xc1, 0xbd, 0x00, 0x00, 0x00, 0x00, 0x06, 0x83, 0xc1, 0x3d,
  0x06, 0x83, 0x41, 0xbd, 0x06, 0x83, 0xc1, 0xbd, 0x44, 0x22, 0x11, 0xbe,
  0x06, 0x83, 0xc1, 0x3d, 0x06, 0x83, 0xc1, 0xbd, 0x06, 0x83, 0x41, 0xbd,
  0x00, 0x00, 0x00, 0x00, 0x44, 0x22, 0x11, 0x3e, 0x00, 0x00, 0x00, 0x00,
  0x44, 0x22, 0x11, 0xbe, 0x06, 0x83, 0xc1, 0xbd, 0x06, 0x83, 0x41, 0xbd,
  0x06, 0x83, 0xc1, 0x3d, 0x00, 0x00, 0x00, 0x00, 0x06, 0x83, 0xc1, 0x3d,
  0x06, 0x83, 0x41, 0xbd, 0x06, 0x83, 0x41, 0x3d, 0x06, 0x83, 0x41, 0x3d,
  0x00, 0x00, 0x00, 0x00, 0x00, 0x00, 0x00, 0x00, 0x06, 0x83, 0x41, 0xbd,
  0x00, 0x00, 0x00, 0x00, 0x00, 0x00, 0x00, 0x00, 0x44, 0x22, 0x11, 0x3e,
  0x44, 0x22, 0x11, 0x3e, 0x06, 0x83, 0x41, 0xbd, 0x06, 0x83, 0xc1, 0xbd,
  0x00, 0x00, 0x00, 0x00, 0x06, 0x83, 0x41, 0x3d, 0x06, 0x83, 0xc1, 0xbd,
  0x06, 0x83, 0x41, 0x3d, 0x06, 0x83, 0x41, 0xbd, 0x06, 0x83, 0x41, 0xbd,
  0x06, 0x83, 0x41, 0xbd, 0x06, 0x83, 0xc1, 0xbd, 0x44, 0x22, 0x11, 0xbe,
  0x06, 0x83, 0xc1, 0x3d, 0x06, 0x83, 0x41, 0xbd, 0x06, 0x83, 0xc1, 0x3d,
  0x06, 0x83, 0xc1, 0x3d, 0x06, 0x83, 0xc1, 0x3d, 0x44, 0x22, 0x11, 0x3e,
  0x06, 0x83, 0xc1, 0x3d, 0x06, 0x83, 0xc1, 0x3d, 0x06, 0x83, 0xc1, 0xbd,
  0x44, 0x22, 0x11, 0xbe, 0x06, 0x83, 0xc1, 0xbd, 0x06, 0x83, 0x41, 0xbd,
  0x06, 0x83, 0xc1, 0x3d, 0x06, 0x83, 0xc1, 0xbd, 0x06, 0x83, 0x41, 0x3d,
  0x06, 0x83, 0x41, 0x3d, 0x44, 0x22, 0x11, 0x3e, 0x44, 0x22, 0x11, 0xbe,
  0x06, 0x83, 0xc1, 0xbd, 0x44, 0x22, 0x11, 0xbe, 0x06, 0x83, 0xc1, 0xbd,
  0x00, 0x00, 0x00, 0x00, 0x06, 0x83, 0xc1, 0xbd, 0x06, 0x83, 0x41, 0x3d,
  0x06, 0x83, 0x41, 0x3d, 0x06, 0x83, 0xc1, 0x3d, 0x06, 0x83, 0x41, 0x3d,
  0x06, 0x83, 0x41, 0xbd, 0x06, 0x83, 0xc1, 0xbd, 0x06, 0x83, 0x41, 0xbd,
  0x44, 0x22, 0x11, 0x3e, 0x06, 0x83, 0x41, 0x3d, 0x44, 0x22, 0x11, 0x3e,
  0x44, 0x22, 0x11, 0xbe, 0x44, 0x22, 0x11, 0xbe, 0x06, 0x83, 0xc1, 0x3d,
  0x00, 0x00, 0x00, 0x00, 0x06, 0x83, 0xc1, 0xbd, 0x44, 0x22, 0x11, 0xbe,
  0x44, 0x22, 0x11, 0x3e, 0x06, 0x83, 0x41, 0x3d, 0x06, 0x83, 0x41, 0x3d,
  0x06, 0x83, 0x41, 0x3d, 0x06, 0x83, 0xc1, 0xbd, 0x06, 0x83, 0x41, 0xbd,
  0x00, 0x00, 0x00, 0x00, 0x00, 0x00, 0x00, 0x00, 0x06, 0x83, 0x41, 0x3d,
  0x06, 0x83, 0xc1, 0x3d, 0x06, 0x83, 0x41, 0x3d, 0x06, 0x83, 0x41, 0x3d,
  0x06, 0x83, 0xc1, 0x3d, 0x44, 0x22, 0x11, 0xbe, 0x06, 0x83, 0x41, 0x3d,
  0x06, 0x83, 0x41, 0xbd, 0x06, 0x83, 0xc1, 0xbd, 0x06, 0x83, 0xc1, 0x3d,
  0x06, 0x83, 0x41, 0xbd, 0x06, 0x83, 0x41, 0xbd, 0x06, 0x83, 0xc1, 0xbd,
  0x00, 0x00, 0x00, 0x00, 0x06, 0x83, 0xc1, 0xbd, 0x06, 0x83, 0x41, 0x3d,
  0x44, 0x22, 0x11, 0xbe, 0x00, 0x00, 0x00, 0x00, 0x00, 0x00, 0x00, 0x00,
  0x44, 0x22, 0x11, 0xbe, 0x06, 0x83, 0x41, 0xbd, 0x06, 0x83, 0xc1, 0x3d,
  0x00, 0x00, 0x00, 0x00, 0x00, 0x00, 0x00, 0x00, 0x06, 0x83, 0x41, 0x3d,
  0x06, 0x83, 0xc1, 0x3d, 0x06, 0x83, 0x41, 0x3d, 0x06, 0x83, 0x41, 0xbd,
  0x44, 0x22, 0x11, 0x3e, 0x00, 0x00, 0x00, 0x00, 0x06, 0x83, 0xc1, 0xbd,
  0x44, 0x22, 0x11, 0xbe, 0x06, 0x83, 0xc1, 0xbd, 0x06, 0x83, 0x41, 0x3d,
  0x00, 0x00, 0x00, 0x00, 0x06, 0x83, 0xc1, 0xbd, 0x06, 0x83, 0xc1, 0xbd,
  0x00, 0x00, 0x00, 0x00, 0x06, 0x83, 0x41, 0xbd, 0x06, 0x4f, 0xfd, 0xff,
  0x04, 0x00, 0x00, 0x00, 0x00, 0x00, 0x02, 0x00, 0x06, 0x83, 0x41, 0xbd,
  0x06, 0x83, 0xc1, 0x3d, 0x06, 0x83, 0x41, 0x3d, 0x06, 0x83, 0x41, 0xbd,
  0x06, 0x83, 0xc1, 0xbd, 0x06, 0x83, 0x41, 0xbd, 0x06, 0x83, 0x41, 0xbd,
  0x06, 0x83, 0x41, 0x3d, 0x06, 0x83, 0x41, 0x3d, 0x06, 0x83, 0xc1, 0xbd,
  0x06, 0x83, 0x41, 0xbd, 0x06, 0x83, 0x41, 0xbd, 0x00, 0x00, 0x00, 0x00,
  0x00, 0x00, 0x00, 0x00, 0x06, 0x83, 0xc1, 0xbd, 0x00, 0x00, 0x00, 0x00,
  0x06, 0x83, 0x41, 0xbd, 0x06, 0x83, 0x41, 0x3d, 0x06, 0x83, 0xc1, 0xbd,
  0x06, 0x83, 0xc1, 0x3d, 0x06, 0x83, 0xc1, 0x3d, 0x06, 0x83, 0x41, 0x3d,
  0x06, 0x83, 0x41, 0xbd, 0x44, 0x22, 0x11, 0xbe, 0x06, 0x83, 0x41, 0x3d,
  0x06, 0x83, 0xc1, 0x3d, 0x06, 0x83, 0x41, 0x3d, 0x06, 0x83, 0xc1, 0x3d,
  0x06, 0x83, 0xc1, 0x3d, 0x06, 0x83, 0xc1, 0x3d, 0x00, 0x00, 0x00, 0x00,
  0x06, 0x83, 0xc1, 0xbd, 0x06, 0x83, 0xc1, 0xbd, 0x06, 0x83, 0xc1, 0x3d,
  0x06, 0x83, 0x41, 0x3d, 0x06, 0x83, 0x41, 0x3d, 0x06, 0x83, 0x41, 0x3d,
  0x44, 0x22, 0x11, 0xbe, 0x00, 0x00, 0x00, 0x00, 0x06, 0x83, 0xc1, 0xbd,
  0x06, 0x83, 0x41, 0x3d, 0x00, 0x00, 0x00, 0x00, 0x06, 0x83, 0x41, 0x3d,
  0x44, 0x22, 0x11, 0xbe, 0x06, 0x83, 0x41, 0xbd, 0x06, 0x83, 0xc1, 0xbd,
  0x06, 0x83, 0xc1, 0x3d, 0x06, 0x83, 0x41, 0xbd, 0x06, 0x83, 0x41, 0x3d,
  0x06, 0x83, 0x41, 0xbd, 0x06, 0x83, 0xc1, 0xbd, 0x06, 0x83, 0xc1, 0xbd,
  0x00, 0x00, 0x00, 0x00, 0x00, 0x00, 0x00, 0x00, 0x44, 0x22, 0x11, 0xbe,
  0x06, 0x83, 0x41, 0xbd, 0x06, 0x83, 0x41, 0x3d, 0x06, 0x83, 0xc1, 0x3d,
  0x06, 0x83, 0xc1, 0xbd, 0x00, 0x00, 0x00, 0x00, 0x06, 0x83, 0xc1, 0xbd,
  0x00, 0x00, 0x00, 0x00, 0x44, 0x22, 0x11, 0x3e, 0x06, 0x83, 0x41, 0xbd,
  0x06, 0x83, 0xc1, 0xbd, 0x00, 0x00, 0x00, 0x00, 0x06, 0x83, 0x41, 0xbd,
  0x06, 0x83, 0xc1, 0x3d, 0x44, 0x22, 0x11, 0xbe, 0x00, 0x00, 0x00, 0x00,
  0x06, 0x83, 0x41, 0xbd, 0x44, 0x22, 0x11, 0x3e, 0x06, 0x83, 0xc1, 0x3d,
  0x06, 0x83, 0xc1, 0x3d, 0x06, 0x83, 0x41, 0xbd, 0x06, 0x83, 0xc1, 0x3d,
  0x06, 0x83, 0x41, 0xbd, 0x06, 0x83, 0x41, 0x3d, 0x06, 0x83, 0x41, 0x3d,
  0x00, 0x00, 0x00, 0x00, 0x00, 0x00, 0x00, 0x00, 0x00, 0x00, 0x00, 0x00,
  0x00, 0x00, 0x00, 0x00, 0x06, 0x83, 0x41, 0xbd, 0x06, 0x83, 0x41, 0x3d,
  0x06, 0x83, 0x41, 0x3d, 0x06, 0x83, 0x41, 0xbd, 0x06, 0x83, 0xc1, 0x3d,
  0x00, 0x00, 0x00, 0x00, 0x06, 0x83, 0xc1, 0xbd, 0x06, 0x83, 0xc1, 0xbd,
  0x06, 0x83, 0x41, 0xbd, 0x06, 0x83, 0x41, 0x3d, 0x06, 0x83, 0xc1, 0xbd,
  0x06, 0x83, 0x41, 0xbd, 0x06, 0x83, 0x41, 0x3d, 0x00, 0x00, 0x00, 0x00,
  0x44, 0x22, 0x11, 0x3e, 0x00, 0x00, 0x00, 0x00, 0x06, 0x83, 0xc1, 0x3d,
  0x06, 0x83, 0xc1, 0xbd, 0x06, 0x83, 0x41, 0x3d, 0x06, 0x83, 0x41, 0x3d,
  0x06, 0x83, 0x41, 0xbd, 0x00, 0x00, 0x00, 0x00, 0x06, 0x83, 0x41, 0xbd,
  0x06, 0x83, 0x41, 0xbd, 0x06, 0x83, 0xc1, 0x3d, 0x06, 0x83, 0x41, 0x3d,
  0x44, 0x22, 0x11, 0xbe, 0x06, 0x83, 0xc1, 0x3d, 0x06, 0x83, 0xc1, 0xbd,
  0x06, 0x83, 0xc1, 0x3d, 0x06, 0x83, 0xc1, 0xbd, 0x06, 0x83, 0xc1, 0xbd,
  0x06, 0x83, 0xc1, 0xbd, 0x06, 0x83, 0x41, 0xbd, 0x06, 0x83, 0x41, 0x3d,
  0x06, 0x83, 0xc1, 0x3d, 0x44, 0x22, 0x11, 0xbe, 0x00, 0x00, 0x00, 0x00,
  0x06, 0x83, 0xc1, 0x3d, 0x06, 0x83, 0x41, 0xbd, 0x06, 0x83, 0xc1, 0x3d,
  0x06, 0x83, 0x41, 0x3d, 0x00, 0x00, 0x00, 0x00, 0x06, 0x83, 0xc1, 0x3d,
  0x44, 0x22, 0x11, 0xbe, 0x06, 0x83, 0xc1, 0x3d, 0x44, 0x22, 0x11, 0x3e,
  0x00, 0x00, 0x00, 0x00, 0x06, 0x83, 0x41, 0xbd, 0x06, 0x83, 0xc1, 0xbd,
  0x06, 0x83, 0x41, 0xbd, 0x00, 0x00, 0x00, 0x00, 0x00, 0x00, 0x00, 0x00,
  0x00, 0x00, 0x00, 0x00, 0x00, 0x00, 0x00, 0x00, 0x06, 0x83, 0xc1, 0x3d,
  0x06, 0x83, 0xc1, 0xbd, 0x06, 0x83, 0x41, 0xbd, 0x06, 0x83, 0xc1, 0xbd,
  0x06, 0x83, 0x41, 0x3d, 0x06, 0x83, 0xc1, 0x3d, 0x44, 0x22, 0x11, 0xbe,
  0x44, 0x22, 0x11, 0xbe, 0x06, 0x83, 0xc1, 0xbd, 0x00, 0x00, 0x00, 0x00,
  0x06, 0x83, 0x41, 0xbd, 0x06, 0x83, 0xc1, 0x3d, 0x06, 0x83, 0x41, 0xbd,
  0x06, 0x83, 0x41, 0xbd, 0x06, 0x83, 0x41, 0xbd, 0x06, 0x83, 0x41, 0xbd,
  0x06, 0x83, 0xc1, 0xbd, 0x06, 0x83, 0x41, 0xbd, 0x06, 0x83, 0xc1, 0xbd,
  0x06, 0x83, 0xc1, 0x3d, 0x00, 0x00, 0x00, 0x00, 0x06, 0x83, 0x41, 0x3d,
  0x00, 0x00, 0x00, 0x00, 0x06, 0x83, 0xc1, 0x3d, 0x06, 0x83, 0xc1, 0x3d,
  0x44, 0x22, 0x11, 0x3e, 0x06, 0x83, 0x41, 0x3d, 0x06, 0x83, 0xc1, 0xbd,
  0x00, 0x00, 0x00, 0x00, 0x06, 0x83, 0xc1, 0xbd, 0x06, 0x83, 0x41, 0x3d,
  0x06, 0x83, 0xc1, 0x3d, 0x00, 0x00, 0x00, 0x00, 0x06, 0x83, 0x41, 0x3d,
  0x06, 0x83, 0xc1, 0x3d, 0x06, 0x83, 0x41, 0x3d, 0x06, 0x83, 0x41, 0xbd,
  0x06, 0x83, 0xc1, 0x3d, 0x00, 0x00, 0x00, 0x00, 0x06, 0x83, 0xc1, 0x3d,
  0x00, 0x00, 0x00, 0x00, 0x06, 0x83, 0xc1, 0xbd, 0x06, 0x83, 0x41, 0xbd,
  0x06, 0x83, 0xc1, 0x3d, 0x06, 0x83, 0x41, 0xbd, 0x00, 0x00, 0x00, 0x00,
  0x06, 0x83, 0xc1, 0x3d, 0x06, 0x83, 0xc1, 0xbd, 0x06, 0x83, 0x41, 0xbd,
  0x06, 0x83, 0xc1, 0x3d, 0x06, 0x83, 0xc1, 0xbd, 0x06, 0x83, 0x41, 0x3d,
  0x00, 0x00, 0x00, 0x00, 0x00, 0x00, 0x00, 0x00, 0x06, 0x83, 0x41, 0x3d,
  0x00, 0x00, 0x00, 0x00, 0x06, 0x83, 0x41, 0xbd, 0x00, 0x00, 0x00, 0x00,
  0x00, 0x00, 0x00, 0x00, 0x06, 0x83, 0x41, 0x3d, 0x00, 0x00, 0x00, 0x00,
  0x06, 0x83, 0xc1, 0xbd, 0x06, 0x83, 0x41, 0xbd, 0x06, 0x83, 0x41, 0x3d,
  0x06, 0x83, 0xc1, 0xbd, 0x06, 0x83, 0x41, 0x3d, 0x06, 0x83, 0x41, 0x3d,
  0x06, 0x83, 0x41, 0x3d, 0x06, 0x83, 0x41, 0x3d, 0x06, 0x83, 0xc1, 0x3d,
  0x06, 0x83, 0x41, 0xbd, 0x06, 0x83, 0xc1, 0x3d, 0x06, 0x83, 0x41, 0xbd,
  0x44, 0x22, 0x11, 0xbe, 0x06, 0x83, 0x41, 0x3d, 0x06, 0x83, 0x41, 0x3d,
  0x06, 0x83, 0xc1, 0xbd, 0x06, 0x83, 0xc1, 0x3d, 0x06, 0x83, 0x41, 0xbd,
  0x06, 0x83, 0xc1, 0x3d, 0x44, 0x22, 0x11, 0xbe, 0x06, 0x83, 0x41, 0xbd,
  0x06, 0x83, 0xc1, 0x3d, 0x06, 0x83, 0xc1, 0xbd, 0x06, 0x83, 0x41, 0x3d,
  0x06, 0x83, 0x41, 0x3d, 0x44, 0x22, 0x11, 0xbe, 0x00, 0x00, 0x00, 0x00,
  0x06, 0x83, 0x41, 0xbd, 0x00, 0x00, 0x00, 0x00, 0x06, 0x83, 0xc1, 0xbd,
  0x00, 0x00, 0x00, 0x00, 0x06, 0x83, 0x41, 0xbd, 0x44, 0x22, 0x11, 0x3e,
  0x06, 0x83, 0x41, 0x3d, 0x06, 0x83, 0xc1, 0x3d, 0x06, 0x83, 0x41, 0xbd,
  0x06, 0x83, 0xc1, 0xbd, 0x06, 0x83, 0xc1, 0x3d, 0x06, 0x83, 0xc1, 0xbd,
  0x00, 0x00, 0x00, 0x00, 0x06, 0x83, 0xc1, 0x3d, 0x06, 0x83, 0xc1, 0xbd,
  0x06, 0x83, 0x41, 0x3d, 0x06, 0x83, 0xc1, 0x3d, 0x00, 0x00, 0x00, 0x00,
  0x06, 0x83, 0x41, 0xbd, 0x06, 0x83, 0x41, 0x3d, 0x06, 0x83, 0xc1, 0xbd,
  0x06, 0x83, 0xc1, 0xbd, 0x06, 0x83, 0x41, 0x3d, 0x00, 0x00, 0x00, 0x00,
  0x06, 0x83, 0x41, 0xbd, 0x44, 0x22, 0x11, 0x3e, 0x00, 0x00, 0x00, 0x00,
  0x00, 0x00, 0x00, 0x00, 0x06, 0x83, 0xc1, 0x3d, 0x06, 0x83, 0x41, 0xbd,
  0x00, 0x00, 0x00, 0x00, 0x06, 0x83, 0x41, 0xbd, 0x06, 0x83, 0x41, 0xbd,
  0x00, 0x00, 0x00, 0x00, 0x00, 0x00, 0x00, 0x00, 0x06, 0x83, 0xc1, 0xbd,
  0x06, 0x83, 0xc1, 0x3d, 0x06, 0x83, 0xc1, 0x3d, 0x06, 0x83, 0x41, 0xbd,
  0x00, 0x00, 0x00, 0x00, 0x06, 0x83, 0xc1, 0xbd, 0x00, 0x00, 0x00, 0x00,
  0x06, 0x83, 0x41, 0x3d, 0x06, 0x83, 0x41, 0xbd, 0x06, 0x83, 0xc1, 0x3d,
  0x06, 0x83, 0xc1, 0xbd, 0x06, 0x83, 0x41, 0x3d, 0x00, 0x00, 0x00, 0x00,
  0x06, 0x83, 0xc1, 0x3d, 0x06, 0x83, 0x41, 0x3d, 0x06, 0x83, 0xc1, 0x3d,
  0x06, 0x83, 0x41, 0xbd, 0x06, 0x83, 0xc1, 0xbd, 0x06, 0x83, 0x41, 0xbd,
  0x06, 0x83, 0xc1, 0xbd, 0x06, 0x83, 0x41, 0xbd, 0x00, 0x00, 0x00, 0x00,
  0x06, 0x83, 0xc1, 0x3d, 0x06, 0x83, 0xc1, 0xbd, 0x06, 0x83, 0xc1, 0x3d,
  0x06, 0x83, 0x41, 0x3d, 0x06, 0x83, 0x41, 0x3d, 0x06, 0x83, 0x41, 0xbd,
  0x06, 0x83, 0xc1, 0xbd, 0x06, 0x83, 0x41, 0xbd, 0x00, 0x00, 0x00, 0x00,
  0x06, 0x83, 0x41, 0xbd, 0x06, 0x83, 0x41, 0xbd, 0x44, 0x22, 0x11, 0xbe,
  0x06, 0x83, 0x41, 0xbd, 0x06, 0x83, 0x41, 0x3d, 0x06, 0x83, 0xc1, 0x3d,
  0x06, 0x83, 0x41, 0x3d, 0x06, 0x83, 0x41, 0xbd, 0x06, 0x83, 0xc1, 0xbd,
  0x06, 0x83, 0x41, 0xbd, 0x06, 0x83, 0x41, 0xbd, 0x06, 0x83, 0xc1, 0x3d,
  0x00, 0x00, 0x00, 0x00, 0x00, 0x00, 0x00, 0x00, 0x00, 0x00, 0x00, 0x00,
  0x06, 0x83, 0xc1, 0xbd, 0x06, 0x83, 0x41, 0xbd, 0x00, 0x00, 0x00, 0x00,
  0x06, 0x83, 0xc1, 0x3d, 0x06, 0x83, 0x41, 0x3d, 0x06, 0x83, 0x41, 0x3d,
  0x06, 0x83, 0x41, 0x3d, 0x06, 0x83, 0xc1, 0xbd, 0x06, 0x83, 0x41, 0x3d,
  0x44, 0x22, 0x11, 0xbe, 0x06, 0x83, 0xc1, 0xbd, 0x00, 0x00, 0x00, 0x00,
  0x06, 0x83, 0x41, 0xbd, 0x00, 0x00, 0x00, 0x00, 0x06, 0x83, 0xc1, 0xbd,
  0x06, 0x83, 0xc1, 0x3d, 0x06, 0x83, 0xc1, 0xbd, 0x06, 0x83, 0xc1, 0xbd,
  0x06, 0x83, 0x41, 0xbd, 0x44, 0x22, 0x11, 0xbe, 0x06, 0x83, 0x41, 0x3d,
  0x06, 0x83, 0xc1, 0xbd, 0x06, 0x83, 0x41, 0xbd, 0x00, 0x00, 0x00, 0x00,
  0x00, 0x00, 0x00, 0x00, 0x06, 0x83, 0x41, 0x3d, 0x06, 0x83, 0x41, 0xbd,
  0x06, 0x83, 0x41, 0xbd, 0x06, 0x83, 0xc1, 0x3d, 0x00, 0x00, 0x00, 0x00,
  0x06, 0x83, 0x41, 0x3d, 0x06, 0x83, 0xc1, 0x3d, 0x06, 0x83, 0x41, 0xbd,
  0x06, 0x83, 0xc1, 0xbd, 0x06, 0x83, 0xc1, 0x3d, 0x06, 0x83, 0xc1, 0x3d,
  0x00, 0x00, 0x00, 0x00, 0x00, 0x00, 0x00, 0x00, 0x06, 0x83, 0x41, 0xbd,
  0x06, 0x83, 0x41, 0x3d, 0x06, 0x83, 0x41, 0xbd, 0x06, 0x83, 0x41, 0xbd,
  0x06, 0x83, 0x41, 0xbd, 0x06, 0x83, 0x41, 0x3d, 0x06, 0x83, 0xc1, 0x3d,
  0x06, 0x83, 0xc1, 0x3d, 0x06, 0x83, 0x41, 0xbd, 0x06, 0x83, 0xc1, 0x3d,
  0x06, 0x83, 0x41, 0xbd, 0x06, 0x83, 0xc1, 0xbd, 0x06, 0x83, 0xc1, 0x3d,
  0x06, 0x83, 0xc1, 0x3d, 0x06, 0x83, 0xc1, 0xbd, 0x06, 0x83, 0xc1, 0x3d,
  0x06, 0x83, 0x41, 0xbd, 0x06, 0x83, 0x41, 0xbd, 0x06, 0x83, 0xc1, 0xbd,
  0x06, 0x83, 0xc1, 0xbd, 0x44, 0x22, 0x11, 0x3e, 0x06, 0x83, 0x41, 0x3d,
  0x06, 0x83, 0xc1, 0xbd, 0x06, 0x83, 0xc1, 0x3d, 0x06, 0x83, 0xc1, 0xbd,
  0x06, 0x83, 0xc1, 0x3d, 0x00, 0x00, 0x00, 0x00, 0x06, 0x83, 0xc1, 0x3d,
  0x06, 0x83, 0x41, 0x3d, 0x06, 0x83, 0x41, 0x3d, 0x00, 0x00, 0x00, 0x00,
  0x06, 0x83, 0x41, 0x3d, 0x06, 0x83, 0x41, 0xbd, 0x06, 0x83, 0xc1, 0xbd,
  0x00, 0x00, 0x00, 0x00, 0x06, 0x83, 0xc1, 0x3d, 0x06, 0x83, 0x41, 0xbd,
  0x06, 0x83, 0xc1, 0x3d, 0x06, 0x83, 0xc1, 0xbd, 0x06, 0x83, 0xc1, 0xbd,
  0x00, 0x00, 0x00, 0x00, 0x06, 0x83, 0x41, 0x3d, 0x00, 0x00, 0x00, 0x00,
  0x06, 0x83, 0xc1, 0x3d, 0x06, 0x83, 0x41, 0xbd, 0x06, 0x83, 0xc1, 0x3d,
  0x44, 0x22, 0x11, 0xbe, 0x06, 0x83, 0x41, 0x3d, 0x06, 0x83, 0xc1, 0xbd,
  0x06, 0x83, 0xc1, 0x3d, 0x06, 0x83, 0xc1, 0xbd, 0x06, 0x83, 0x41, 0x3d,
  0x06, 0x83, 0xc1, 0x3d, 0x06, 0x83, 0x41, 0xbd, 0x06, 0x83, 0x41, 0xbd,
  0x06, 0x83, 0x41, 0x3d, 0x06, 0x83, 0x41, 0x3d, 0x06, 0x83, 0x41, 0xbd,
  0x06, 0x83, 0xc1, 0xbd, 0x06, 0x83, 0x41, 0xbd, 0x06, 0x83, 0xc1, 0x3d,
  0x06, 0x83, 0xc1, 0x3d, 0x06, 0x83, 0xc1, 0x3d, 0x06, 0x83, 0x41, 0xbd,
  0x06, 0x83, 0xc1, 0x3d, 0x06, 0x83, 0xc1, 0x3d, 0x06, 0x83, 0xc1, 0x3d,
  0x06, 0x83, 0x41, 0xbd, 0x06, 0x83, 0xc1, 0xbd, 0x06, 0x83, 0xc1, 0xbd,
  0x44, 0x22, 0x11, 0xbe, 0x06, 0x83, 0x41, 0x3d, 0x06, 0x83, 0x41, 0x3d,
  0x06, 0x83, 0xc1, 0x3d, 0x06, 0x83, 0xc1, 0xbd, 0x06, 0x83, 0xc1, 0xbd,
  0x06, 0x83, 0x41, 0xbd, 0x06, 0x83, 0x41, 0x3d, 0x06, 0x83, 0x41, 0xbd,
  0x06, 0x83, 0x41, 0x3d, 0x06, 0x83, 0x41, 0xbd, 0x06, 0x83, 0x41, 0xbd,
  0x06, 0x83, 0x41, 0xbd, 0x06, 0x83, 0xc1, 0xbd, 0x06, 0x83, 0xc1, 0xbd,
  0x06, 0x83, 0x41, 0x3d, 0x06, 0x83, 0xc1, 0x3d, 0x00, 0x00, 0x00, 0x00,
  0x44, 0x22, 0x11, 0xbe, 0x06, 0x83, 0xc1, 0xbd, 0x00, 0x00, 0x00, 0x00,
  0x06, 0x83, 0xc1, 0xbd, 0x06, 0x83, 0x41, 0xbd, 0x00, 0x00, 0x00, 0x00,
  0x00, 0x00, 0x00, 0x00, 0x00, 0x00, 0x00, 0x00, 0x00, 0x00, 0x00, 0x00,
  0x06, 0x83, 0xc1, 0x3d, 0x44, 0x22, 0x11, 0x3e, 0x06, 0x83, 0xc1, 0x3d,
  0x06, 0x83, 0xc1, 0x3d, 0x00, 0x00, 0x00, 0x00, 0x06, 0x83, 0xc1, 0x3d,
  0x06, 0x83, 0x41, 0xbd, 0x00, 0x00, 0x00, 0x00, 0x00, 0x00, 0x00, 0x00,
  0x44, 0x22, 0x11, 0xbe, 0x06, 0x83, 0xc1, 0x3d, 0x06, 0x83, 0xc1, 0x3d,
  0x06, 0x83, 0xc1, 0xbd, 0x06, 0x83, 0xc1, 0xbd, 0x00, 0x00, 0x00, 0x00,
  0x06, 0x83, 0x41, 0x3d, 0x06, 0x83, 0x41, 0xbd, 0x06, 0x83, 0xc1, 0x3d,
  0x06, 0x83, 0xc1, 0x3d, 0x06, 0x83, 0xc1, 0xbd, 0x44, 0x22, 0x11, 0x3e,
  0x06, 0x83, 0xc1, 0x3d, 0x06, 0x83, 0x41, 0xbd, 0x06, 0x83, 0x41, 0xbd,
  0x06, 0x83, 0xc1, 0xbd, 0x00, 0x00, 0x00, 0x00, 0x06, 0x83, 0xc1, 0xbd,
  0x06, 0x83, 0x41, 0x3d, 0x00, 0x00, 0x00, 0x00, 0x06, 0x83, 0x41, 0xbd,
  0x06, 0x83, 0x41, 0x3d, 0x06, 0x83, 0xc1, 0xbd, 0x06, 0x83, 0xc1, 0xbd,
  0x06, 0x83, 0x41, 0xbd, 0x06, 0x83, 0x41, 0x3d, 0x00, 0x00, 0x00, 0x00,
  0x00, 0x00, 0x00, 0x00, 0x06, 0x83, 0x41, 0xbd, 0x06, 0x83, 0x41, 0xbd,
  0x06, 0x83, 0xc1, 0x3d, 0x06, 0x83, 0xc1, 0x3d, 0x06, 0x83, 0x41, 0xbd,
  0x06, 0x83, 0x41, 0x3d, 0x06, 0x83, 0xc1, 0xbd, 0x06, 0x83, 0xc1, 0xbd,
  0x00, 0x00, 0x00, 0x00, 0x06, 0x83, 0x41, 0x3d, 0x06, 0x83, 0xc1, 0xbd,
  0x06, 0x83, 0x41, 0x3d, 0x06, 0x83, 0xc1, 0x3d, 0x06, 0x83, 0x41, 0xbd,
  0x06, 0x83, 0x41, 0x3d, 0x44, 0x22, 0x11, 0x3e, 0x06, 0x83, 0x41, 0x3d,
  0x44, 0x22, 0x11, 0xbe, 0x00, 0x00, 0x00, 0x00, 0x06, 0x83, 0x41, 0xbd,
  0x00, 0x00, 0x00, 0x00, 0x06, 0x83, 0xc1, 0xbd, 0x00, 0x00, 0x00, 0x00,
  0x06, 0x83, 0x41, 0xbd, 0x06, 0x83, 0x41, 0x3d, 0x00, 0x00, 0x00, 0x00,
  0x06, 0x83, 0x41, 0xbd, 0x06, 0x83, 0x41, 0x3d, 0x06, 0x83, 0x41, 0xbd,
  0x06, 0x83, 0xc1, 0x3d, 0x06, 0x83, 0xc1, 0xbd, 0x06, 0x83, 0xc1, 0x3d,
  0x06, 0x83, 0xc1, 0x3d, 0x06, 0x83, 0xc1, 0x3d, 0x06, 0x83, 0xc1, 0xbd,
  0x06, 0x83, 0xc1, 0x3d, 0x06, 0x83, 0xc1, 0xbd, 0x44, 0x22, 0x11, 0x3e,
  0x06, 0x83, 0xc1, 0x3d, 0x06, 0x83, 0x41, 0xbd, 0x44, 0x22, 0x11, 0x3e,
  0x06, 0x83, 0x41, 0x3d, 0x00, 0x00, 0x00, 0x00, 0x00, 0x00, 0x00, 0x00,
  0x06, 0x83, 0xc1, 0xbd, 0x06, 0x83, 0xc1, 0x3d, 0x06, 0x83, 0xc1, 0x3d,
  0x06, 0x83, 0x41, 0x3d, 0x06, 0x83, 0xc1, 0xbd, 0x06, 0x83, 0xc1, 0x3d,
  0x06, 0x83, 0xc1, 0xbd, 0x06, 0x83, 0xc1, 0xbd, 0x06, 0x83, 0x41, 0x3d,
  0x06, 0x83, 0x41, 0x3d, 0x06, 0x83, 0xc1, 0x3d, 0x00, 0x00, 0x00, 0x00,
  0x06, 0x83, 0xc1, 0xbd, 0x06, 0x83, 0xc1, 0x3d, 0x06, 0x83, 0xc1, 0x3d,
  0x06, 0x83, 0xc1, 0xbd, 0x06, 0x83, 0x41, 0xbd, 0x06, 0x83, 0x41, 0x3d,
  0x00, 0x00, 0x00, 0x00, 0x06, 0x83, 0xc1, 0xbd, 0x00, 0x00, 0x00, 0x00,
  0x06, 0x83, 0x41, 0xbd, 0x06, 0x83, 0x41, 0xbd, 0x06, 0x83, 0x41, 0xbd,
  0x06, 0x83, 0xc1, 0xbd, 0x44, 0x22, 0x11, 0xbe, 0x06, 0x83, 0x41, 0xbd,
  0x06, 0x83, 0xc1, 0xbd, 0x06, 0x83, 0x41, 0xbd, 0x00, 0x00, 0x00, 0x00,
  0x06, 0x83, 0xc1, 0xbd, 0x06, 0x83, 0xc1, 0x3d, 0x06, 0x83, 0x41, 0x3d,
  0x06, 0x83, 0xc1, 0xbd, 0x06, 0x83, 0xc1, 0x3d, 0x06, 0x83, 0xc1, 0x3d,
  0x06, 0x83, 0xc1, 0xbd, 0x06, 0x83, 0xc1, 0x3d, 0x06, 0x83, 0xc1, 0x3d,
  0x06, 0x83, 0x41, 0x3d, 0x06, 0x83, 0x41, 0x3d, 0x06, 0x83, 0x41, 0xbd,
  0x06, 0x83, 0xc1, 0xbd, 0x06, 0x83, 0xc1, 0x3d, 0x06, 0x83, 0xc1, 0xbd,
  0x06, 0x83, 0x41, 0xbd, 0x06, 0x83, 0xc1, 0xbd, 0x06, 0x83, 0xc1, 0x3d,
  0x00, 0x00, 0x00, 0x00, 0x44, 0x22, 0x11, 0x3e, 0x06, 0x83, 0xc1, 0xbd,
  0x06, 0x83, 0xc1, 0x3d, 0x06, 0x83, 0x41, 0x3d, 0x44, 0x22, 0x11, 0xbe,
  0x06, 0x83, 0xc1, 0xbd, 0x00, 0x00, 0x00, 0x00, 0x00, 0x00, 0x00, 0x00,
  0x06, 0x83, 0xc1, 0xbd, 0x00, 0x00, 0x00, 0x00, 0x00, 0x00, 0x00, 0x00,
  0x06, 0x83, 0xc1, 0xbd, 0x06, 0x83, 0x41, 0xbd, 0x06, 0x83, 0x41, 0x3d,
  0x44, 0x22, 0x11, 0xbe, 0x00, 0x00, 0x00, 0x00, 0x00, 0x00, 0x00, 0x00,
  0x06, 0x83, 0x41, 0x3d, 0x06, 0x83, 0xc1, 0x3d, 0x06, 0x83, 0x41, 0x3d,
  0x06, 0x83, 0xc1, 0x3d, 0x00, 0x00, 0x00, 0x00, 0x44, 0x22, 0x11, 0xbe,
  0x06, 0x83, 0x41, 0x3d, 0x06, 0x83, 0x41, 0xbd, 0x06, 0x83, 0x41, 0x3d,
  0x06, 0x83, 0x41, 0xbd, 0x06, 0x83, 0x41, 0x3d, 0x00, 0x00, 0x00, 0x00,
  0x06, 0x83, 0xc1, 0xbd, 0x06, 0x83, 0x41, 0x3d, 0x00, 0x00, 0x00, 0x00,
  0x06, 0x83, 0x41, 0xbd, 0x44, 0x22, 0x11, 0xbe, 0x06, 0x83, 0x41, 0xbd,
  0x06, 0x83, 0xc1, 0xbd, 0x06, 0x83, 0xc1, 0xbd, 0x06, 0x83, 0xc1, 0xbd,
  0x00, 0x00, 0x00, 0x00, 0x06, 0x83, 0xc1, 0x3d, 0x06, 0x83, 0xc1, 0x3d,
  0x00, 0x00, 0x00, 0x00, 0x06, 0x83, 0x41, 0x3d, 0x06, 0x83, 0x41, 0xbd,
  0x06, 0x83, 0xc1, 0x3d, 0x06, 0x83, 0x41, 0xbd, 0x00, 0x00, 0x00, 0x00,
  0x06, 0x83, 0x41, 0x3d, 0x06, 0x83, 0xc1, 0x3d, 0x06, 0x83, 0x41, 0x3d,
  0x06, 0x83, 0x41, 0x3d, 0x06, 0x83, 0x41, 0x3d, 0x06, 0x83, 0x41, 0x3d,
  0x06, 0x83, 0xc1, 0xbd, 0x06, 0x83, 0x41, 0xbd, 0x00, 0x00, 0x00, 0x00,
  0x00, 0x00, 0x00, 0x00, 0x06, 0x83, 0xc1, 0x3d, 0x06, 0x83, 0xc1, 0x3d,
  0x06, 0x83, 0x41, 0xbd, 0x06, 0x83, 0xc1, 0x3d, 0x06, 0x83, 0xc1, 0xbd,
  0x06, 0x83, 0x41, 0xbd, 0x00, 0x00, 0x00, 0x00, 0x00, 0x00, 0x00, 0x00,
  0x06, 0x83, 0x41, 0x3d, 0x06, 0x83, 0x41, 0x3d, 0x06, 0x83, 0x41, 0xbd,
  0x06, 0x83, 0xc1, 0xbd, 0x06, 0x83, 0xc1, 0xbd, 0x00, 0x00, 0x00, 0x00,
  0x06, 0x83, 0xc1, 0x3d, 0x00, 0x00, 0x00, 0x00, 0x06, 0x83, 0x41, 0x3d,
  0x44, 0x22, 0x11, 0x3e, 0x06, 0x83, 0x41, 0x3d, 0x06, 0x83, 0x41, 0x3d,
  0x00, 0x00, 0x00, 0x00, 0x00, 0x00, 0x00, 0x00, 0x00, 0x00, 0x00, 0x00,
  0x44, 0x22, 0x11, 0xbe, 0x06, 0x83, 0x41, 0xbd, 0x06, 0x83, 0x41, 0xbd,
  0x06, 0x83, 0xc1, 0x3d, 0x06, 0x83, 0x41, 0x3d, 0x06, 0x83, 0xc1, 0xbd,
  0x06, 0x83, 0xc1, 0xbd, 0x06, 0x83, 0x41, 0xbd, 0x06, 0x83, 0x41, 0x3d,
  0x06, 0x83, 0x41, 0x3d, 0x06, 0x83, 0xc1, 0x3d, 0x44, 0x22, 0x11, 0x3e,
  0x06, 0x83, 0x41, 0xbd, 0x06, 0x83, 0xc1, 0xbd, 0x06, 0x83, 0x41, 0xbd,
  0x06, 0x83, 0xc1, 0x3d, 0x00, 0x00, 0x00, 0x00, 0x06, 0x83, 0xc1, 0xbd,
  0x06, 0x83, 0x41, 0x3d, 0x00, 0x00, 0x00, 0x00, 0x44, 0x22, 0x11, 0x3e,
  0x06, 0x83, 0xc1, 0x3d, 0x06, 0x83, 0x41, 0xbd, 0x06, 0x83, 0xc1, 0xbd,
  0x06, 0x83, 0xc1, 0xbd, 0x06, 0x83, 0xc1, 0xbd, 0x06, 0x83, 0x41, 0x3d,
  0x06, 0x83, 0x41, 0x3d, 0x06, 0x83, 0x41, 0x3d, 0x06, 0x83, 0xc1, 0x3d,
  0x06, 0x83, 0xc1, 0x3d, 0x44, 0x22, 0x11, 0xbe, 0x06, 0x83, 0xc1, 0x3d,
  0x06, 0x83, 0x41, 0xbd, 0x06, 0x83, 0x41, 0xbd, 0x06, 0x83, 0xc1, 0xbd,
  0x00, 0x00, 0x00, 0x00, 0x44, 0x22, 0x11, 0x3e, 0x06, 0x83, 0xc1, 0xbd,
  0x06, 0x83, 0x41, 0xbd, 0x06, 0x83, 0x41, 0x3d, 0x06, 0x83, 0x41, 0xbd,
  0x06, 0x83, 0xc1, 0xbd, 0x06, 0x83, 0x41, 0xbd, 0x00, 0x00, 0x00, 0x00,
  0x06, 0x83, 0x41, 0xbd, 0x06, 0x83, 0xc1, 0x3d, 0x06, 0x83, 0xc1, 0xbd,
  0x06, 0x83, 0xc1, 0x3d, 0x06, 0x83, 0xc1, 0x3d, 0x06, 0x83, 0x41, 0xbd,
  0x06, 0x83, 0xc1, 0x3d, 0x06, 0x83, 0xc1, 0x3d, 0x00, 0x00, 0x00, 0x00,
  0x06, 0x83, 0x41, 0x3d, 0x06, 0x83, 0x41, 0xbd, 0x00, 0x00, 0x00, 0x00,
  0x06, 0x83, 0xc1, 0x3d, 0x06, 0x83, 0xc1, 0xbd, 0x06, 0x83, 0xc1, 0xbd,
  0x06, 0x83, 0xc1, 0x3d, 0x06, 0x83, 0x41, 0x3d, 0x06, 0x83, 0xc1, 0x3d,
  0x06, 0x83, 0x41, 0xbd, 0x06, 0x83, 0x41, 0xbd, 0x06, 0x83, 0xc1, 0x3d,
  0x06, 0x83, 0xc1, 0xbd, 0x06, 0x83, 0x41, 0x3d, 0x00, 0x00, 0x00, 0x00,
  0x06, 0x83, 0x41, 0xbd, 0x06, 0x83, 0xc1, 0xbd, 0x44, 0x22, 0x11, 0x3e,
  0x00, 0x00, 0x00, 0x00, 0x06, 0x83, 0xc1, 0x3d, 0x06, 0x83, 0x41, 0x3d,
  0x06, 0x83, 0x41, 0xbd, 0x06, 0x83, 0xc1, 0xbd, 0x06, 0x83, 0x41, 0x3d,
  0x06, 0x83, 0x41, 0x3d, 0x06, 0x83, 0x41, 0xbd, 0x06, 0x83, 0x41, 0x3d,
  0x00, 0x00, 0x00, 0x00, 0x06, 0x83, 0xc1, 0x3d, 0x00, 0x00, 0x00, 0x00,
  0x06, 0x83, 0x41, 0xbd, 0x06, 0x83, 0x41, 0xbd, 0x00, 0x00, 0x00, 0x00,
  0x06, 0x83, 0x41, 0x3d, 0x06, 0x83, 0x41, 0x3d, 0x00, 0x00, 0x00, 0x00,
  0x00, 0x00, 0x00, 0x00, 0x06, 0x83, 0x41, 0x3d, 0x06, 0x83, 0xc1, 0xbd,
  0x06, 0x83, 0xc1, 0x3d, 0x06, 0x83, 0x41, 0x3d, 0x06, 0x83, 0xc1, 0xbd,
  0x06, 0x83, 0x41, 0xbd, 0x06, 0x83, 0xc1, 0x3d, 0x06, 0x83, 0xc1, 0xbd,
  0x06, 0x83, 0x41, 0xbd, 0x06, 0x83, 0xc1, 0x3d, 0x06, 0x83, 0x41, 0x3d,
  0x06, 0x83, 0xc1, 0xbd, 0x06, 0x83, 0x41, 0x3d, 0x06, 0x83, 0x41, 0x3d,
  0x44, 0x22, 0x11, 0xbe, 0x06, 0x83, 0x41, 0x3d, 0x06, 0x83, 0xc1, 0xbd,
  0x06, 0x83, 0x41, 0xbd, 0x44, 0x22, 0x11, 0x3e, 0x06, 0x83, 0xc1, 0xbd,
  0x00, 0x00, 0x00, 0x00, 0x06, 0x83, 0x41, 0xbd, 0x06, 0x83, 0x41, 0xbd,
  0x06, 0x83, 0x41, 0x3d, 0x06, 0x83, 0x41, 0xbd, 0x06, 0x83, 0xc1, 0x3d,
  0x06, 0x83, 0xc1, 0xbd, 0x06, 0x83, 0xc1, 0xbd, 0x00, 0x00, 0x00, 0x00,
  0x06, 0x83, 0xc1, 0xbd, 0x44, 0x22, 0x11, 0xbe, 0x06, 0x83, 0x41, 0xbd,
  0x06, 0x83, 0x41, 0x3d, 0x06, 0x83, 0x41, 0x3d, 0x06, 0x83, 0x41, 0x3d,
  0x06, 0x83, 0xc1, 0x3d, 0x44, 0x22, 0x11, 0x3e, 0x06, 0x83, 0xc1, 0xbd,
  0x00, 0x00, 0x00, 0x00, 0x44, 0x22, 0x11, 0xbe, 0x06, 0x83, 0xc1, 0x3d,
  0x06, 0x83, 0x41, 0x3d, 0x06, 0x83, 0x41, 0x3d, 0x06, 0x83, 0x41, 0xbd,
  0x00, 0x00, 0x00, 0x00, 0x00, 0x00, 0x00, 0x00, 0x06, 0x83, 0x41, 0xbd,
  0x06, 0x83, 0x41, 0xbd, 0x00, 0x00, 0x00, 0x00, 0x06, 0x83, 0x41, 0x3d,
  0x06, 0x83, 0xc1, 0xbd, 0x06, 0x83, 0xc1, 0x3d, 0x06, 0x83, 0x41, 0x3d,
  0x00, 0x00, 0x00, 0x00, 0x06, 0x83, 0x41, 0xbd, 0x06, 0x83, 0x41, 0xbd,
  0x06, 0x83, 0x41, 0xbd, 0x06, 0x83, 0xc1, 0xbd, 0x00, 0x00, 0x00, 0x00,
  0x06, 0x83, 0x41, 0x3d, 0x06, 0x83, 0xc1, 0xbd, 0x44, 0x22, 0x11, 0xbe,
  0x06, 0x83, 0x41, 0x3d, 0x06, 0x83, 0x41, 0x3d, 0x06, 0x83, 0x41, 0xbd,
  0x06, 0x83, 0xc1, 0x3d, 0x06, 0x83, 0x41, 0xbd, 0x06, 0x83, 0x41, 0xbd,
  0x00, 0x00, 0x00, 0x00, 0x00, 0x00, 0x00, 0x00, 0x06, 0x83, 0x41, 0xbd,
  0x06, 0x83, 0xc1, 0xbd, 0x06, 0x83, 0x41, 0xbd, 0x06, 0x83, 0x41, 0xbd,
  0x06, 0x83, 0x41, 0x3d, 0x06, 0x83, 0x41, 0xbd, 0x06, 0x83, 0xc1, 0x3d,
  0x06, 0x83, 0x41, 0x3d, 0x06, 0x83, 0xc1, 0x3d, 0x00, 0x00, 0x00, 0x00,
  0x00, 0x00, 0x00, 0x00, 0x06, 0x83, 0x41, 0xbd, 0x06, 0x83, 0xc1, 0x3d,
  0x44, 0x22, 0x11, 0xbe, 0x00, 0x00, 0x00, 0x00, 0x06, 0x83, 0x41, 0xbd,
  0x06, 0x83, 0x41, 0x3d, 0x00, 0x00, 0x00, 0x00, 0x06, 0x83, 0x41, 0xbd,
  0x44, 0x22, 0x11, 0x3e, 0x00, 0x00, 0x00, 0x00, 0x06, 0x83, 0xc1, 0xbd,
  0x06, 0x83, 0xc1, 0xbd, 0x06, 0x83, 0xc1, 0xbd, 0x06, 0x83, 0xc1, 0x3d,
  0x00, 0x00, 0x00, 0x00, 0x06, 0x83, 0xc1, 0xbd, 0x06, 0x83, 0xc1, 0x3d,
  0x00, 0x00, 0x00, 0x00, 0x00, 0x00, 0x00, 0x00, 0x06, 0x83, 0xc1, 0x3d,
  0x06, 0x83, 0xc1, 0x3d, 0x00, 0x00, 0x00, 0x00, 0x06, 0x83, 0x41, 0x3d,
  0x06, 0x83, 0x41, 0x3d, 0x06, 0x83, 0xc1, 0x3d, 0x44, 0x22, 0x11, 0x3e,
  0x06, 0x83, 0xc1, 0x3d, 0x06, 0x83, 0x41, 0xbd, 0x06, 0x83, 0x41, 0xbd,
  0x44, 0x22, 0x11, 0x3e, 0x06, 0x83, 0x41, 0x3d, 0x00, 0x00, 0x00, 0x00,
  0x00, 0x00, 0x00, 0x00, 0x06, 0x83, 0x41, 0xbd, 0x06, 0x83, 0x41, 0x3d,
  0x06, 0x83, 0x41, 0x3d, 0x00, 0x00, 0x00, 0x00, 0x06, 0x83, 0xc1, 0xbd,
  0x06, 0x83, 0xc1, 0x3d, 0x06, 0x83, 0x41, 0x3d, 0x06, 0x83, 0x41, 0xbd,
  0x06, 0x83, 0xc1, 0xbd, 0x06, 0x83, 0x41, 0x3d, 0x06, 0x83, 0x41, 0x3d,
  0x06, 0x83, 0xc1, 0xbd, 0x06, 0x83, 0xc1, 0x3d, 0x06, 0x83, 0xc1, 0x3d,
  0x06, 0x83, 0xc1, 0x3d, 0x06, 0x83, 0xc1, 0x3d, 0x06, 0x83, 0xc1, 0xbd,
  0x06, 0x83, 0x41, 0x3d, 0x06, 0x83, 0xc1, 0xbd, 0x06, 0x83, 0x41, 0x3d,
  0x06, 0x83, 0x41, 0xbd, 0x00, 0x00, 0x00, 0x00, 0x06, 0x83, 0xc1, 0x3d,
  0x06, 0x83, 0x41, 0xbd, 0x06, 0x83, 0xc1, 0x3d, 0x06, 0x83, 0x41, 0xbd,
  0x44, 0x22, 0x11, 0xbe, 0x06, 0x83, 0xc1, 0x3d, 0x06, 0x83, 0xc1, 0x3d,
  0x06, 0x83, 0xc1, 0xbd, 0x06, 0x83, 0xc1, 0xbd, 0x00, 0x00, 0x00, 0x00,
  0x06, 0x83, 0xc1, 0x3d, 0x06, 0x83, 0x41, 0xbd, 0x06, 0x83, 0xc1, 0x3d,
  0x06, 0x83, 0xc1, 0xbd, 0x00, 0x00, 0x00, 0x00, 0x00, 0x00, 0x00, 0x00,
  0x06, 0x83, 0xc1, 0x3d, 0x00, 0x00, 0x00, 0x00, 0x06, 0x83, 0x41, 0xbd,
  0x06, 0x83, 0xc1, 0x3d, 0x06, 0x83, 0x41, 0xbd, 0x06, 0x83, 0xc1, 0x3d,
  0x06, 0x83, 0x41, 0x3d, 0x06, 0x83, 0xc1, 0xbd, 0x00, 0x00, 0x00, 0x00,
  0x00, 0x00, 0x00, 0x00, 0x06, 0x83, 0x41, 0xbd, 0x06, 0x83, 0xc1, 0xbd,
  0x06, 0x83, 0xc1, 0xbd, 0x00, 0x00, 0x00, 0x00, 0x06, 0x83, 0x41, 0x3d,
  0x06, 0x83, 0x41, 0xbd, 0x00, 0x00, 0x00, 0x00, 0x06, 0x83, 0xc1, 0xbd,
  0x06, 0x83, 0x41, 0xbd, 0x00, 0x00, 0x00, 0x00, 0x00, 0x00, 0x00, 0x00,
  0x06, 0x83, 0xc1, 0xbd, 0x06, 0x83, 0x41, 0xbd, 0x06, 0x83, 0xc1, 0x3d,
  0x06, 0x83, 0xc1, 0xbd, 0x06, 0x83, 0xc1, 0xbd, 0x06, 0x83, 0x41, 0xbd,
  0x06, 0x83, 0x41, 0x3d, 0x06, 0x83, 0x41, 0xbd, 0x06, 0x83, 0xc1, 0xbd,
  0x06, 0x83, 0xc1, 0x3d, 0x06, 0x83, 0x41, 0x3d, 0x06, 0x83, 0x41, 0xbd,
  0x06, 0x83, 0xc1, 0xbd, 0x06, 0x83, 0xc1, 0x3d, 0x00, 0x00, 0x00, 0x00,
  0x06, 0x83, 0x41, 0xbd, 0x00, 0x00, 0x00, 0x00, 0x06, 0x83, 0x41, 0x3d,
  0x06, 0x83, 0x41, 0xbd, 0x00, 0x00, 0x00, 0x00, 0x06, 0x83, 0xc1, 0x3d,
  0x06, 0x83, 0x41, 0xbd, 0x00, 0x00, 0x00, 0x00, 0x06, 0x83, 0xc1, 0x3d,
  0x06, 0x83, 0xc1, 0xbd, 0x06, 0x83, 0xc1, 0x3d, 0x06, 0x83, 0xc1, 0xbd,
  0x06, 0x83, 0x41, 0xbd, 0x06, 0x83, 0xc1, 0xbd, 0x06, 0x83, 0xc1, 0x3d,
  0x06, 0x83, 0x41, 0x3d, 0x06, 0x83, 0xc1, 0xbd, 0x00, 0x00, 0x00, 0x00,
  0x00, 0x00, 0x00, 0x00, 0x00, 0x00, 0x00, 0x00, 0x06, 0x83, 0x41, 0xbd,
  0x06, 0x83, 0xc1, 0xbd, 0x06, 0x83, 0x41, 0xbd, 0x00, 0x00, 0x00, 0x00,
  0x06, 0x83, 0xc1, 0x3d, 0x06, 0x83, 0x41, 0x3d, 0x00, 0x00, 0x00, 0x00,
  0x00, 0x00, 0x00, 0x00, 0x06, 0x83, 0x41, 0xbd, 0x00, 0x00, 0x00, 0x00,
  0x06, 0x83, 0x41, 0xbd, 0x06, 0x83, 0xc1, 0xbd, 0x00, 0x00, 0x00, 0x00,
  0x06, 0x83, 0x41, 0x3d, 0x06, 0x83, 0xc1, 0x3d, 0x06, 0x83, 0xc1, 0xbd,
  0x06, 0x83, 0x41, 0xbd, 0x06, 0x83, 0x41, 0x3d, 0x44, 0x22, 0x11, 0xbe,
  0x06, 0x83, 0x41, 0x3d, 0x06, 0x83, 0xc1, 0xbd, 0x06, 0x83, 0x41, 0xbd,
  0x06, 0x83, 0xc1, 0xbd, 0x06, 0x83, 0xc1, 0xbd, 0x06, 0x83, 0xc1, 0xbd,
  0x06, 0x83, 0x41, 0x3d, 0x06, 0x83, 0x41, 0x3d, 0x44, 0x22, 0x11, 0xbe,
  0x06, 0x83, 0x41, 0xbd, 0x06, 0x83, 0xc1, 0xbd, 0x06, 0x83, 0xc1, 0xbd,
  0x06, 0x83, 0xc1, 0xbd, 0x06, 0x83, 0x41, 0x3d, 0x00, 0x00, 0x00, 0x00,
  0x00, 0x00, 0x00, 0x00, 0x00, 0x00, 0x00, 0x00, 0x06, 0x83, 0xc1, 0x3d,
  0x06, 0x83, 0xc1, 0xbd, 0x06, 0x83, 0x41, 0x3d, 0x06, 0x83, 0xc1, 0xbd,
  0x06, 0x83, 0x41, 0xbd, 0x06, 0x83, 0x41, 0x3d, 0x00, 0x00, 0x00, 0x00,
  0x00, 0x00, 0x00, 0x00, 0x06, 0x83, 0x41, 0xbd, 0x00, 0x00, 0x00, 0x00,
  0x00, 0x00, 0x00, 0x00, 0x06, 0x83, 0xc1, 0x3d, 0x06, 0x83, 0x41, 0x3d,
  0x06, 0x83, 0x41, 0x3d, 0x00, 0x00, 0x00, 0x00, 0x06, 0x83, 0xc1, 0x3d,
  0x06, 0x83, 0x41, 0xbd, 0x06, 0x83, 0x41, 0x3d, 0x00, 0x00, 0x00, 0x00,
  0x06, 0x83, 0xc1, 0xbd, 0x06, 0x83, 0x41, 0xbd, 0x06, 0x83, 0xc1, 0xbd,
  0x44, 0x22, 0x11, 0xbe, 0x06, 0x83, 0x41, 0x3d, 0x06, 0x83, 0x41, 0x3d,
  0x06, 0x83, 0xc1, 0xbd, 0x00, 0x00, 0x00, 0x00, 0x06, 0x83, 0x41, 0x3d,
  0x06, 0x83, 0xc1, 0xbd, 0x06, 0x83, 0x41, 0xbd, 0x00, 0x00, 0x00, 0x00,
  0x06, 0x83, 0xc1, 0xbd, 0x06, 0x83, 0x41, 0x3d, 0x06, 0x83, 0xc1, 0x3d,
  0x06, 0x83, 0x41, 0x3d, 0x06, 0x83, 0x41, 0x3d, 0x44, 0x22, 0x11, 0xbe,
  0x44, 0x22, 0x11, 0xbe, 0x06, 0x83, 0xc1, 0x3d, 0x06, 0x83, 0xc1, 0xbd,
  0x00, 0x00, 0x00, 0x00, 0x06, 0x83, 0xc1, 0x3d, 0x06, 0x83, 0xc1, 0x3d,
  0x06, 0x83, 0x41, 0xbd, 0x06, 0x83, 0x41, 0x3d, 0x06, 0x83, 0x41, 0xbd,
  0x06, 0x83, 0xc1, 0xbd, 0x06, 0x83, 0x41, 0xbd, 0x06, 0x83, 0x41, 0x3d,
  0x06, 0x83, 0xc1, 0xbd, 0x00, 0x00, 0x00, 0x00, 0x06, 0x83, 0x41, 0xbd,
  0x44, 0x22, 0x11, 0x3e, 0x06, 0x83, 0x41, 0xbd, 0x06, 0x83, 0x41, 0x3d,
  0x06, 0x83, 0x41, 0x3d, 0x06, 0x83, 0xc1, 0x3d, 0x06, 0x83, 0x41, 0x3d,
  0x06, 0x83, 0xc1, 0x3d, 0x06, 0x83, 0x41, 0xbd, 0x00, 0x00, 0x00, 0x00,
  0x06, 0x83, 0x41, 0x3d, 0x44, 0x22, 0x11, 0xbe, 0x06, 0x83, 0x41, 0x3d,
  0x06, 0x83, 0xc1, 0xbd, 0x00, 0x00, 0x00, 0x00, 0x06, 0x83, 0xc1, 0xbd,
  0x00, 0x00, 0x00, 0x00, 0x06, 0x83, 0x41, 0xbd, 0x44, 0x22, 0x11, 0xbe,
  0x06, 0x83, 0x41, 0xbd, 0x00, 0x00, 0x00, 0x00, 0x00, 0x00, 0x00, 0x00,
  0x06, 0x83, 0x41, 0xbd, 0x00, 0x00, 0x00, 0x00, 0x06, 0x83, 0x41, 0xbd,
  0x06, 0x83, 0x41, 0xbd, 0x06, 0x83, 0xc1, 0x3d, 0x06, 0x83, 0xc1, 0xbd,
  0x06, 0x83, 0xc1, 0x3d, 0x06, 0x83, 0x41, 0x3d, 0x06, 0x83, 0xc1, 0xbd,
  0x44, 0x22, 0x11, 0xbe, 0x06, 0x83, 0xc1, 0x3d, 0x06, 0x83, 0xc1, 0xbd,
  0x06, 0x83, 0xc1, 0x3d, 0x06, 0x83, 0x41, 0x3d, 0x00, 0x00, 0x00, 0x00,
  0x44, 0x22, 0x11, 0xbe, 0x06, 0x83, 0x41, 0x3d, 0x00, 0x00, 0x00, 0x00,
  0x06, 0x83, 0x41, 0x3d, 0x06, 0x83, 0x41, 0xbd, 0x06, 0x83, 0xc1, 0xbd,
  0x06, 0x83, 0x41, 0x3d, 0x06, 0x83, 0xc1, 0xbd, 0x00, 0x00, 0x00, 0x00,
  0x06, 0x83, 0xc1, 0x3d, 0x44, 0x22, 0x11, 0x3e, 0x06, 0x83, 0x41, 0x3d,
  0x06, 0x83, 0xc1, 0x3d, 0x00, 0x00, 0x00, 0x00, 0x06, 0x83, 0x41, 0xbd,
  0x06, 0x83, 0x41, 0x3d, 0x06, 0x83, 0x41, 0x3d, 0x06, 0x83, 0x41, 0x3d,
  0x06, 0x83, 0xc1, 0x3d, 0x00, 0x00, 0x00, 0x00, 0x06, 0x83, 0xc1, 0xbd,
  0x00, 0x00, 0x00, 0x00, 0x06, 0x83, 0x41, 0xbd, 0x06, 0x83, 0xc1, 0xbd,
  0x06, 0x83, 0x41, 0x3d, 0x06, 0x83, 0x41, 0x3d, 0x06, 0x83, 0xc1, 0x3d,
  0x06, 0x83, 0x41, 0xbd, 0x06, 0x83, 0xc1, 0xbd, 0x06, 0x83, 0xc1, 0x3d,
  0x06, 0x83, 0xc1, 0x3d, 0x06, 0x83, 0x41, 0xbd, 0x06, 0x83, 0x41, 0x3d,
  0x06, 0x83, 0xc1, 0xbd, 0x06, 0x83, 0x41, 0x3d, 0x06, 0x83, 0x41, 0xbd,
  0x00, 0x00, 0x00, 0x00, 0x06, 0x83, 0x41, 0xbd, 0x06, 0x83, 0x41, 0xbd,
  0x00, 0x00, 0x00, 0x00, 0x06, 0x83, 0x41, 0xbd, 0x06, 0x83, 0x41, 0xbd,
  0x06, 0x83, 0xc1, 0x3d, 0x06, 0x83, 0x41, 0xbd, 0x00, 0x00, 0x00, 0x00,
  0x06, 0x83, 0xc1, 0xbd, 0x06, 0x83, 0x41, 0x3d, 0x44, 0x22, 0x11, 0xbe,
  0x44, 0x22, 0x11, 0x3e, 0x00, 0x00, 0x00, 0x00, 0x06, 0x83, 0xc1, 0x3d,
  0x00, 0x00, 0x00, 0x00, 0x06, 0x83, 0xc1, 0x3d, 0x00, 0x00, 0x00, 0x00,
  0x06, 0x83, 0x41, 0x3d, 0x06, 0x83, 0x41, 0xbd, 0x06, 0x83, 0x41, 0x3d,
  0x06, 0x83, 0xc1, 0xbd, 0x06, 0x83, 0x41, 0x3d, 0x06, 0x83, 0xc1, 0xbd,
  0x00, 0x00, 0x00, 0x00, 0x06, 0x83, 0x41, 0x3d, 0x06, 0x83, 0x41, 0x3d,
  0x06, 0x83, 0x41, 0x3d, 0x06, 0x83, 0xc1, 0xbd, 0x00, 0x00, 0x00, 0x00,
  0x06, 0x83, 0xc1, 0xbd, 0x06, 0x83, 0xc1, 0xbd, 0x06, 0x83, 0x41, 0xbd,
  0x06, 0x83, 0xc1, 0x3d, 0x06, 0x83, 0x41, 0x3d, 0x06, 0x83, 0xc1, 0xbd,
  0x06, 0x83, 0x41, 0xbd, 0x06, 0x83, 0xc1, 0xbd, 0x06, 0x83, 0x41, 0xbd,
  0x00, 0x00, 0x00, 0x00, 0x00, 0x00, 0x00, 0x00, 0x06, 0x83, 0xc1, 0xbd,
  0x06, 0x83, 0x41, 0xbd, 0x06, 0x83, 0x41, 0xbd, 0x06, 0x83, 0xc1, 0x3d,
  0x06, 0x83, 0xc1, 0x3d, 0x06, 0x83, 0x41, 0xbd, 0x00, 0x00, 0x00, 0x00,
